{
  "version": "1.0",
  "truncation": null,
  "padding": null,
  "added_tokens": [
    {
      "id": 0,
      "content": "<|endoftext|>",
      "single_word": false,
      "lstrip": false,
      "rstrip": false,
      "normalized": false,
      "special": true
    },
    {
      "id": 1,
      "content": "[PAD]",
      "single_word": false,
      "lstrip": false,
      "rstrip": false,
      "normalized": false,
      "special": true
    },
    {
      "id": 2,
      "content": "[BOS]",
      "single_word": false,
      "lstrip": false,
      "rstrip": false,
      "normalized": false,
      "special": true
    },
    {
      "id": 3,
      "content": "[EOS]",
      "single_word": false,
      "lstrip": false,
      "rstrip": false,
      "normalized": false,
      "special": true
    },
    {
      "id": 4,
      "content": "[UNK]",
      "single_word": false,
      "lstrip": false,
      "rstrip": false,
      "normalized": false,
      "special": true
    }
  ],
  "normalizer": null,
  "pre_tokenizer": {
    "type": "ByteLevel",
    "add_prefix_space": false,
    "trim_offsets": true,
    "use_regex": true
  },
  "post_processor": null,
  "decoder": {
    "type": "ByteLevel",
    "add_prefix_space": true,
    "trim_offsets": true,
    "use_regex": true
  },
  "model": {
    "type": "BPE",
    "dropout": null,
    "unk_token": "[UNK]",
    "continuing_subword_prefix": null,
    "end_of_word_suffix": null,
    "fuse_unk": false,
    "byte_fallback": false,
    "ignore_merges": false,
    "vocab": {
      "<|endoftext|>": 0,
      "[PAD]": 1,
      "[BOS]": 2,
      "[EOS]": 3,
      "[UNK]": 4,
      "!": 5,
      "\"": 6,
      "#": 7,
      "$": 8,
      "%": 9,
      "&": 10,
      "'": 11,
      "(": 12,
      ")": 13,
      "*": 14,
      "+": 15,
      ",": 16,
      "-": 17,
      ".": 18,
      "/": 19,
      "0": 20,
      "1": 21,
      "2": 22,
      "3": 23,
      "4": 24,
      "5": 25,
      "6": 26,
      "7": 27,
      "8": 28,
      "9": 29,
      ":": 30,
      ";": 31,
      "<": 32,
      "=": 33,
      ">": 34,
      "?": 35,
      "@": 36,
      "A": 37,
      "B": 38,
      "C": 39,
      "D": 40,
      "E": 41,
      "F": 42,
      "G": 43,
      "H": 44,
      "I": 45,
      "J": 46,
      "K": 47,
      "L": 48,
      "M": 49,
      "N": 50,
      "O": 51,
      "P": 52,
      "Q": 53,
      "R": 54,
      "S": 55,
      "T": 56,
      "U": 57,
      "V": 58,
      "W": 59,
      "X": 60,
      "Y": 61,
      "Z": 62,
      "[": 63,
      "\\": 64,
      "]": 65,
      "^": 66,
      "_": 67,
      "`": 68,
      "a": 69,
      "b": 70,
      "c": 71,
      "d": 72,
      "e": 73,
      "f": 74,
      "g": 75,
      "h": 76,
      "i": 77,
      "j": 78,
      "k": 79,
      "l": 80,
      "m": 81,
      "n": 82,
      "o": 83,
      "p": 84,
      "q": 85,
      "r": 86,
      "s": 87,
      "t": 88,
      "u": 89,
      "v": 90,
      "w": 91,
      "x": 92,
      "y": 93,
      "z": 94,
      "{": 95,
      "|": 96,
      "}": 97,
      "~": 98,
      "¡": 99,
      "¢": 100,
      "£": 101,
      "¤": 102,
      "¥": 103,
      "¦": 104,
      "§": 105,
      "¨": 106,
      "©": 107,
      "ª": 108,
      "«": 109,
      "¬": 110,
      "®": 111,
      "¯": 112,
      "°": 113,
      "±": 114,
      "²": 115,
      "³": 116,
      "´": 117,
      "µ": 118,
      "¶": 119,
      "·": 120,
      "¸": 121,
      "¹": 122,
      "º": 123,
      "»": 124,
      "¼": 125,
      "½": 126,
      "¾": 127,
      "¿": 128,
      "À": 129,
      "Á": 130,
      "Â": 131,
      "Ã": 132,
      "Ä": 133,
      "Å": 134,
      "Æ": 135,
      "Ç": 136,
      "È": 137,
      "É": 138,
      "Ê": 139,
      "Ë": 140,
      "Ì": 141,
      "Í": 142,
      "Î": 143,
      "Ï": 144,
      "Ð": 145,
      "Ñ": 146,
      "Ò": 147,
      "Ó": 148,
      "Ô": 149,
      "Õ": 150,
      "Ö": 151,
      "×": 152,
      "Ø": 153,
      "Ù": 154,
      "Ú": 155,
      "Û": 156,
      "Ü": 157,
      "Ý": 158,
      "Þ": 159,
      "ß": 160,
      "à": 161,
      "á": 162,
      "â": 163,
      "ã": 164,
      "ä": 165,
      "å": 166,
      "æ": 167,
      "ç": 168,
      "è": 169,
      "é": 170,
      "ê": 171,
      "ë": 172,
      "ì": 173,
      "í": 174,
      "î": 175,
      "ï": 176,
      "ð": 177,
      "ñ": 178,
      "ò": 179,
      "ó": 180,
      "ô": 181,
      "õ": 182,
      "ö": 183,
      "÷": 184,
      "ø": 185,
      "ù": 186,
      "ú": 187,
      "û": 188,
      "ü": 189,
      "ý": 190,
      "þ": 191,
      "ÿ": 192,
      "Ā": 193,
      "ā": 194,
      "Ă": 195,
      "ă": 196,
      "Ą": 197,
      "ą": 198,
      "Ć": 199,
      "ć": 200,
      "Ĉ": 201,
      "ĉ": 202,
      "Ċ": 203,
      "ċ": 204,
      "Č": 205,
      "č": 206,
      "Ď": 207,
      "ď": 208,
      "Đ": 209,
      "đ": 210,
      "Ē": 211,
      "ē": 212,
      "Ĕ": 213,
      "ĕ": 214,
      "Ė": 215,
      "ė": 216,
      "Ę": 217,
      "ę": 218,
      "Ě": 219,
      "ě": 220,
      "Ĝ": 221,
      "ĝ": 222,
      "Ğ": 223,
      "ğ": 224,
      "Ġ": 225,
      "ġ": 226,
      "Ģ": 227,
      "ģ": 228,
      "Ĥ": 229,
      "ĥ": 230,
      "Ħ": 231,
      "ħ": 232,
      "Ĩ": 233,
      "ĩ": 234,
      "Ī": 235,
      "ī": 236,
      "Ĭ": 237,
      "ĭ": 238,
      "Į": 239,
      "į": 240,
      "İ": 241,
      "ı": 242,
      "Ĳ": 243,
      "ĳ": 244,
      "Ĵ": 245,
      "ĵ": 246,
      "Ķ": 247,
      "ķ": 248,
      "ĸ": 249,
      "Ĺ": 250,
      "ĺ": 251,
      "Ļ": 252,
      "ļ": 253,
      "Ľ": 254,
      "ľ": 255,
      "Ŀ": 256,
      "ŀ": 257,
      "Ł": 258,
      "ł": 259,
      "Ń": 260,
      "en": 261,
      "er": 262,
      "Ġd": 263,
      "in": 264,
      "Ġt": 265,
      "ch": 266,
      "Ġa": 267,
      "on": 268,
      "Ġth": 269,
      "es": 270,
      "is": 271,
      "un": 272,
      "Ġw": 273,
      "it": 274,
      "Ġs": 275,
      "at": 276,
      "ie": 277,
      "Ġthe": 278,
      "or": 279,
      "re": 280,
      "an": 281,
      "ich": 282,
      "Ġb": 283,
      "ion": 284,
      "Ġo": 285,
      "Ġin": 286,
      "Ġm": 287,
      "al": 288,
      "Ġf": 289,
      "ar": 290,
      "ro": 291,
      "te": 292,
      "Ġe": 293,
      "le": 294,
      "ent": 295,
      "Ġp": 296,
      "Ġan": 297,
      "Ġh": 298,
      "Ġn": 299,
      "Ġc": 300,
      "ung": 301,
      "ge": 302,
      "Ġun": 303,
      "Ã¼": 304,
      "Ġof": 305,
      "as": 306,
      "Ã¤": 307,
      "Ġto": 308,
      "us": 309,
      "Ġdie": 310,
      "Ġder": 311,
      "Ġv": 312,
      "om": 313,
      "Ġbe": 314,
      "ur": 315,
      "ll": 316,
      "ing": 317,
      "Ġand": 318,
      "ĠE": 319,
      "Ġis": 320,
      "ed": 321,
      "Ġund": 322,
      "ir": 323,
      "ig": 324,
      "Ġz": 325,
      "st": 326,
      "Ġein": 327,
      "ĠP": 328,
      "ra": 329,
      "em": 330,
      "ĠA": 331,
      "ĠS": 332,
      "ic": 333,
      "im": 334,
      "Ġg": 335,
      "ÃŁ": 336,
      "ĠM": 337,
      "ut": 338,
      "eit": 339,
      "icht": 340,
      "ies": 341,
      "el": 342,
      "Ġre": 343,
      "ol": 344,
      "id": 345,
      "ation": 346,
      "omm": 347,
      "am": 348,
      "ĠB": 349,
      "sch": 350,
      "ter": 351,
      "ten": 352,
      "ul": 353,
      "rop": 354,
      "der": 355,
      "il": 356,
      "lich": 357,
      "ve": 358,
      "ber": 359,
      "Ġthat": 360,
      "hr": 361,
      "den": 362,
      "ct": 363,
      "Ġzu": 364,
      "ĠI": 365,
      "Ġwh": 366,
      "gen": 367,
      "Ġau": 368,
      "Ã¶": 369,
      "et": 370,
      "Ã¼r": 371,
      "isch": 372,
      "ĠK": 373,
      "ĠF": 374,
      "ĠR": 375,
      "Ġl": 376,
      "Ġden": 377,
      "urop": 378,
      "Ġfor": 379,
      "ere": 380,
      "Ġk": 381,
      "ĠV": 382,
      "ab": 383,
      "ot": 384,
      "um": 385,
      "Ġon": 386,
      "ĠG": 387,
      "ly": 388,
      "ĠC": 389,
      "ein": 390,
      "iss": 391,
      "res": 392,
      "Ġwir": 393,
      "Ġda": 394,
      "ĠEurop": 395,
      "ort": 396,
      "Ġge": 397,
      "Ġwe": 398,
      "ier": 399,
      "Ġal": 400,
      "Ġim": 401,
      "Ġdies": 402,
      "os": 403,
      "Th": 404,
      "ĠU": 405,
      "de": 406,
      "Ġso": 407,
      "ff": 408,
      "tr": 409,
      "Ġcon": 410,
      "ce": 411,
      "Ġdas": 412,
      "ver": 413,
      "ommiss": 414,
      "Ġthis": 415,
      "Ġver": 416,
      "men": 417,
      "Ġvon": 418,
      "Ġit": 419,
      "est": 420,
      "ĠH": 421,
      "and": 422,
      "ĠfÃ¼r": 423,
      "Ġpro": 424,
      "Ġist": 425,
      "ommission": 426,
      "ft": 427,
      "Ġer": 428,
      "ach": 429,
      "Ġas": 430,
      "Ġare": 431,
      "Ġauf": 432,
      "Ġdes": 433,
      "ment": 434,
      "Ġha": 435,
      "ĠW": 436,
      "kt": 437,
      "ĠD": 438,
      "ill": 439,
      "Ġnicht": 440,
      "ischen": 441,
      "ith": 442,
      "ĠVer": 443,
      "ĠdaÃŁ": 444,
      "uld": 445,
      "Ġnot": 446,
      "Ġwhich": 447,
      "ess": 448,
      "ĠUn": 449,
      "Ġde": 450,
      "ĠL": 451,
      "ould": 452,
      "ow": 453,
      "Ġwith": 454,
      "port": 455,
      "Ġne": 456,
      "op": 457,
      "ke": 458,
      "ungen": 459,
      "her": 460,
      "Ġhave": 461,
      "Ġals": 462,
      "Ġwer": 463,
      "ident": 464,
      "ht": 465,
      "Ġst": 466,
      "ind": 467,
      "ĠEurope": 468,
      "iv": 469,
      "ĠT": 470,
      "la": 471,
      "ate": 472,
      "Ġeine": 473,
      "ive": 474,
      "Ġj": 475,
      "ĠZ": 476,
      "up": 477,
      "Ġdem": 478,
      "Ġse": 479,
      "Ġes": 480,
      "Ġwerden": 481,
      "end": 482,
      "pe": 483,
      "Ã¤n": 484,
      "for": 485,
      "ament": 486,
      "ĠPar": 487,
      "Ġle": 488,
      "ant": 489,
      "if": 490,
      "ial": 491,
      "ens": 492,
      "Ã¼ber": 493,
      "Ġex": 494,
      "Ġmit": 495,
      "ay": 496,
      "ĠRe": 497,
      "ust": 498,
      "ungs": 499,
      "Ġco": 500,
      "ity": 501,
      "Ġall": 502,
      "lie": 503,
      "Ġ-": 504,
      "ib": 505,
      "Ġich": 506,
      "qu": 507,
      "ĠSt": 508,
      "ann": 509,
      "Ġr": 510,
      "The": 511,
      "ug": 512,
      "we": 513,
      "ne": 514,
      "Ġwill": 515,
      "00": 516,
      "nen": 517,
      "Ġvor": 518,
      "ah": 519,
      "und": 520,
      "Ġauch": 521,
      "hal": 522,
      "ĠN": 523,
      "ck": 524,
      "aus": 525,
      "Ġy": 526,
      "err": 527,
      "sen": 528,
      "ste": 529,
      "Ġsich": 530,
      "Ġuns": 531,
      "ĠParl": 532,
      "ĠEuropean": 533,
      "Ġby": 534,
      "uch": 535,
      "igen": 536,
      "ĠUnion": 537,
      "Ġab": 538,
      "och": 539,
      "ts": 540,
      "ions": 541,
      "Ġ1": 542,
      "ik": 543,
      "scha": 544,
      "Ġsh": 545,
      "ĠCommission": 546,
      "ĠÃ¼ber": 547,
      "Ġres": 548,
      "ers": 549,
      "ĠIn": 550,
      "hen": 551,
      "Ġme": 552,
      "Ġhas": 553,
      "Ġhab": 554,
      "ĠAn": 555,
      "ain": 556,
      "ern": 557,
      "ub": 558,
      "rÃ¤": 559,
      "art": 560,
      "iel": 561,
      "ad": 562,
      "Ġat": 563,
      "uÃŁ": 564,
      "ted": 565,
      "uf": 566,
      "Ġor": 567,
      "Ġum": 568,
      "ges": 569,
      "Ġaus": 570,
      "ure": 571,
      "schaft": 572,
      "olit": 573,
      "pp": 574,
      "ben": 575,
      "Ġwird": 576,
      "tz": 577,
      "ien": 578,
      "me": 579,
      "ĠFra": 580,
      "ĠAus": 581,
      "Ġwie": 582,
      "ĠKommission": 583,
      "sp": 584,
      "ĠEn": 585,
      "ord": 586,
      "etz": 587,
      "Ġsind": 588,
      "ist": 589,
      "Ġhat": 590,
      "ahr": 591,
      "Ġdo": 592,
      "itte": 593,
      "Ġwas": 594,
      "Ġi": 595,
      "Ġsch": 596,
      "llen": 597,
      "heit": 598,
      "Ġcom": 599,
      "Ġma": 600,
      "our": 601,
      "ĠBe": 602,
      "ische": 603,
      "Ġalso": 604,
      "Ġzur": 605,
      "chte": 606,
      "keit": 607,
      "enn": 608,
      "Ġwould": 609,
      "gr": 610,
      "ĠJ": 611,
      "ight": 612,
      "Ġhaben": 613,
      "ĠPro": 614,
      "ĠSch": 615,
      "ĠEuropÃ¤": 616,
      "Die": 617,
      "beit": 618,
      "Ich": 619,
      "eren": 620,
      "ue": 621,
      "rom": 622,
      "all": 623,
      "Ġthere": 624,
      "Ġdar": 625,
      "lichen": 626,
      "In": 627,
      "ise": 628,
      "rÃ¤s": 629,
      "ates": 630,
      "ĠPres": 631,
      "se": 632,
      "ĠBer": 633,
      "ze": 634,
      "ran": 635,
      "ĠmÃ¶": 636,
      "ese": 637,
      "Ġreg": 638,
      "ember": 639,
      "ations": 640,
      "Ġsie": 641,
      "ard": 642,
      "rÃ¤sident": 643,
      "ĠVor": 644,
      "dern": 645,
      "gt": 646,
      "ĠAr": 647,
      "ĠÃ": 648,
      "aten": 649,
      "Ġwor": 650,
      "Ġshould": 651,
      "Ġhe": 652,
      "Ġman": 653,
      "esch": 654,
      "ĠEr": 655,
      "ous": 656,
      "Ġdi": 657,
      "Ġent": 658,
      "ige": 659,
      "be": 660,
      "Ġ2": 661,
      "We": 662,
      "ert": 663,
      "Ġsein": 664,
      "Ġag": 665,
      "Ġam": 666,
      "ak": 667,
      "Ġour": 668,
      "cht": 669,
      "Ġen": 670,
      "od": 671,
      "Ġinter": 672,
      "99": 673,
      "Ã¶n": 674,
      "Ġmust": 675,
      "Ã¤r": 676,
      "Ġfrom": 677,
      "du": 678,
      "ational": 679,
      "ĠPresident": 680,
      "ther": 681,
      "Ġus": 682,
      "ore": 683,
      "lem": 684,
      "oun": 685,
      "urch": 686,
      "ip": 687,
      "Ġad": 688,
      "ud": 689,
      "ect": 690,
      "Ġunter": 691,
      "ĠEnt": 692,
      "ĠMr": 693,
      "Ġpart": 694,
      "ĠAb": 695,
      "age": 696,
      "th": 697,
      "ical": 698,
      "iament": 699,
      "Ġbut": 700,
      "ĠPrÃ¤sident": 701,
      "ou": 702,
      "Ġfa": 703,
      "ĠParlament": 704,
      "Ã¼s": 705,
      "ult": 706,
      "cial": 707,
      "Ġeiner": 708,
      "able": 709,
      "Ġdiese": 710,
      "Ġbeen": 711,
      "ang": 712,
      "ition": 713,
      "Ġqu": 714,
      "ommen": 715,
      "form": 716,
      "uss": 717,
      "rit": 718,
      "ĠBericht": 719,
      "ick": 720,
      "Ã¼hr": 721,
      "Ġnach": 722,
      "cc": 723,
      "anz": 724,
      "Ġcomm": 725,
      "Ġli": 726,
      "ction": 727,
      "Ġcoun": 728,
      "ast": 729,
      "Ġcomp": 730,
      "out": 731,
      "Ã¼n": 732,
      "og": 733,
      "ĠGr": 734,
      "ĠkÃ¶n": 735,
      "Ã¤t": 736,
      "ok": 737,
      "Ġdieser": 738,
      "elt": 739,
      "ĠMit": 740,
      "Ġprop": 741,
      "vel": 742,
      "Ġbei": 743,
      "ution": 744,
      "Ġbet": 745,
      "ish": 746,
      "Ġsa": 747,
      "imm": 748,
      "Ġgo": 749,
      "ĠHerr": 750,
      "ĠMember": 751,
      "Wir": 752,
      "Ġch": 753,
      "ome": 754,
      "Ġreport": 755,
      "ĠParliament": 756,
      "Ġ\"": 757,
      "ary": 758,
      "ute": 759,
      "iz": 760,
      "Ġcan": 761,
      "Ġyou": 762,
      "Ġdis": 763,
      "ĠGe": 764,
      "liche": 765,
      "ĠmÃ¶chte": 766,
      "Ġits": 767,
      "Ġcountr": 768,
      "Ġob": 769,
      "con": 770,
      "hl": 771,
      "Ã¶r": 772,
      "cil": 773,
      "sta": 774,
      "pl": 775,
      "ĠEuropÃ¤ischen": 776,
      "olle": 777,
      "ĠEU": 778,
      "Ġapp": 779,
      "glie": 780,
      "Ġpos": 781,
      "Ã¼ssen": 782,
      "reat": 783,
      "ger": 784,
      "chen": 785,
      "Ġdurch": 786,
      "Ġeinen": 787,
      "Ġpo": 788,
      "Ġste": 789,
      "ank": 790,
      "Ġpr": 791,
      "Ġgro": 792,
      "Ġmore": 793,
      "ierung": 794,
      "ass": 795,
      "ieren": 796,
      "It": 797,
      "ĠmÃ¼ssen": 798,
      "mer": 799,
      "zu": 800,
      "ĠO": 801,
      "gra": 802,
      "ms": 803,
      "Ġzw": 804,
      "rag": 805,
      "Ġmein": 806,
      "pt": 807,
      "ose": 808,
      "Ġdass": 809,
      "nah": 810,
      "Ġnoch": 811,
      "Ġpolit": 812,
      "oc": 813,
      "Mr": 814,
      "ely": 815,
      "Ġlike": 816,
      "This": 817,
      "Ġzum": 818,
      "Ġinc": 819,
      "Ġgen": 820,
      "lin": 821,
      "Ġconc": 822,
      "ĠMitglie": 823,
      "Ġspe": 824,
      "Ġthese": 825,
      "Ġcons": 826,
      "olic": 827,
      "Ġsoll": 828,
      "blem": 829,
      "Ġfin": 830,
      "he": 831,
      "ress": 832,
      "Ġwho": 833,
      "Ġkann": 834,
      "Ġneed": 835,
      "Ġber": 836,
      "Ġnur": 837,
      "Ġih": 838,
      "ĠEin": 839,
      "fen": 840,
      "ĠCoun": 841,
      "ally": 842,
      "ime": 843,
      "ear": 844,
      "gan": 845,
      "ĠCouncil": 846,
      "oll": 847,
      "ance": 848,
      "Ġimp": 849,
      "Ġbes": 850,
      "ĠReg": 851,
      "Ġright": 852,
      "glich": 853,
      "Ġwur": 854,
      "Ġpre": 855,
      "igkeit": 856,
      "Ġdiesem": 857,
      "sten": 858,
      "Ġbec": 859,
      "Herr": 860,
      "Ã¼ck": 861,
      "Ġtheir": 862,
      "Ġop": 863,
      "Ġra": 864,
      "ĠkÃ¶nnen": 865,
      "Ġpropos": 866,
      "hmen": 867,
      "Ġother": 868,
      "fore": 869,
      "000": 870,
      "Ġcont": 871,
      "Ġjed": 872,
      "aÃŁ": 873,
      "Ġte": 874,
      "gram": 875,
      "yste": 876,
      "ĠStates": 877,
      "Ġkein": 878,
      "Ġwork": 879,
      "ĠComm": 880,
      "Ġthey": 881,
      "Ġoder": 882,
      "Ġpolic": 883,
      "sam": 884,
      "Ġpe": 885,
      "Ġimport": 886,
      "Das": 887,
      "Ġta": 888,
      "Ġsup": 889,
      "ffen": 890,
      "Ġvery": 891,
      "ĠMitglied": 892,
      "Ġwenn": 893,
      "olitik": 894,
      "ĠSie": 895,
      "schen": 896,
      "ments": 897,
      "Ġno": 898,
      "Ġaber": 899,
      "ause": 900,
      "Ġup": 901,
      "wo": 902,
      "Es": 903,
      "wer": 904,
      "ap": 905,
      "sib": 906,
      "iert": 907,
      "ced": 908,
      "ement": 909,
      "ag": 910,
      "Ġint": 911,
      "sicht": 912,
      "Ġstr": 913,
      "ative": 914,
      "ĠmuÃŁ": 915,
      "pf": 916,
      "rat": 917,
      "are": 918,
      "Ġsp": 919,
      "reich": 920,
      "usam": 921,
      "lieÃŁ": 922,
      "Ġges": 923,
      "ktion": 924,
      "Ġ(": 925,
      "Ġone": 926,
      "Ġout": 927,
      "cy": 928,
      "au": 929,
      "ject": 930,
      "usammen": 931,
      "erv": 932,
      "Ġweit": 933,
      "ide": 934,
      "ĠArbeit": 935,
      "Ġwar": 936,
      "ittel": 937,
      "Ġihr": 938,
      "Ġgegen": 939,
      "one": 940,
      "uropÃ¤": 941,
      "lic": 942,
      "ark": 943,
      "rie": 944,
      "ention": 945,
      "tschaft": 946,
      "wick": 947,
      "Ġwhat": 948,
      "ĠMitgliedsta": 949,
      "str": 950,
      "ign": 951,
      "Ġcountries": 952,
      "Ġeff": 953,
      "Ġsehr": 954,
      "Ã¤hr": 955,
      "iden": 956,
      "ious": 957,
      "Ġleg": 958,
      "Ġhin": 959,
      "che": 960,
      "Ġmy": 961,
      "itu": 962,
      "fÃ¼hr": 963,
      "ĠKon": 964,
      "utz": 965,
      "leich": 966,
      "ĠUnter": 967,
      "Ã¼tz": 968,
      "ob": 969,
      "rect": 970,
      "ink": 971,
      "teil": 972,
      "ated": 973,
      "erst": 974,
      "tern": 975,
      "Ġacc": 976,
      "Ġind": 977,
      "ugh": 978,
      "onder": 979,
      "Ġ199": 980,
      "ĠJahr": 981,
      "Ġiss": 982,
      "ĠeuropÃ¤": 983,
      "ice": 984,
      "ĠRat": 985,
      "Ġif": 986,
      "velop": 987,
      "Ġwo": 988,
      "arbeit": 989,
      "Ġabout": 990,
      "stit": 991,
      "lung": 992,
      "atter": 993,
      "Ġdec": 994,
      "Ã¤nd": 995,
      "ĠMen": 996,
      "ople": 997,
      "int": 998,
      "Ġeinem": 999,
      "ring": 1000,
      "Ġev": 1001,
      "nung": 1002,
      "ia": 1003,
      "Ġyear": 1004,
      "cess": 1005,
      "ĠDe": 1006,
      "pect": 1007,
      "ine": 1008,
      "ase": 1009,
      "Ġgem": 1010,
      "ĠFrau": 1011,
      "Ġbecause": 1012,
      "bar": 1013,
      "Ġtra": 1014,
      "ĠÃĦ": 1015,
      "ĠVorsch": 1016,
      "ces": 1017,
      "Ġonly": 1018,
      "Ġany": 1019,
      "ities": 1020,
      "auf": 1021,
      "ĠMitgliedstaaten": 1022,
      "los": 1023,
      "fahr": 1024,
      "Ġdieses": 1025,
      "nder": 1026,
      "mend": 1027,
      "Ġunser": 1028,
      "Ġtime": 1029,
      "lear": 1030,
      "lÃ¤": 1031,
      "ider": 1032,
      "Ġmo": 1033,
      "assen": 1034,
      "itÃ¤t": 1035,
      "iven": 1036,
      "ong": 1037,
      "ever": 1038,
      "Ġnew": 1039,
      "ree": 1040,
      "ans": 1041,
      "Ġpartic": 1042,
      "Ġimportant": 1043,
      "Ġmehr": 1044,
      "Dies": 1045,
      "chn": 1046,
      "Ġpolicy": 1047,
      "etzt": 1048,
      "Ġdevelop": 1049,
      "Ġalle": 1050,
      "Ġwicht": 1051,
      "Ġsub": 1052,
      "Ġins": 1053,
      "tet": 1054,
      "Ġpeople": 1055,
      "wend": 1056,
      "Ġhier": 1057,
      "igt": 1058,
      "wir": 1059,
      "tre": 1060,
      "ism": 1061,
      "ĠKolle": 1062,
      "Ġfe": 1063,
      "alt": 1064,
      "unity": 1065,
      "Ġconcern": 1066,
      "sche": 1067,
      "Ġtran": 1068,
      "Ġproposal": 1069,
      "halb": 1070,
      "ular": 1071,
      "ild": 1072,
      "Ġsol": 1073,
      "ĠMenschen": 1074,
      "ility": 1075,
      "Ġexp": 1076,
      "irst": 1077,
      "Ġfact": 1078,
      "land": 1079,
      "geb": 1080,
      "Ġagain": 1081,
      "Ġbereit": 1082,
      "ituation": 1083,
      "ri": 1084,
      "Ġact": 1085,
      "Ġnational": 1086,
      "ĠUm": 1087,
      "ahl": 1088,
      "Ġdam": 1089,
      "lle": 1090,
      "ĠGrund": 1091,
      "Ġvie": 1092,
      "ibt": 1093,
      "ittee": 1094,
      "conom": 1095,
      "Ġsuch": 1096,
      "wor": 1097,
      "Ġihre": 1098,
      "ures": 1099,
      "Ġjust": 1100,
      "Ġem": 1101,
      "ings": 1102,
      "Ġintern": 1103,
      "Ã¤nder": 1104,
      "ĠÃĦnder": 1105,
      "llt": 1106,
      "Ġwurde": 1107,
      "Ġproblem": 1108,
      "Ġsupport": 1109,
      "pro": 1110,
      "uman": 1111,
      "xt": 1112,
      "ĠVerb": 1113,
      "Ġmake": 1114,
      "ystem": 1115,
      "Ġnow": 1116,
      "Ġdeb": 1117,
      "nahmen": 1118,
      "lar": 1119,
      "ĠZusammen": 1120,
      "ner": 1121,
      "stÃ¼tz": 1122,
      "Ġinv": 1123,
      "halten": 1124,
      "mal": 1125,
      "ĠEntwick": 1126,
      "chts": 1127,
      "Ġway": 1128,
      "Ġsome": 1129,
      "Ġrec": 1130,
      "vern": 1131,
      "Ġgr": 1132,
      "Ġtake": 1133,
      "ives": 1134,
      "ire": 1135,
      "fol": 1136,
      "schlieÃŁ": 1137,
      "Ġla": 1138,
      "Ġprov": 1139,
      "ĠCh": 1140,
      "ĠLe": 1141,
      "isation": 1142,
      "ite": 1143,
      "Ġsay": 1144,
      "ific": 1145,
      "ors": 1146,
      "pon": 1147,
      "Ġinto": 1148,
      "ange": 1149,
      "legen": 1150,
      "Ġkon": 1151,
      "Ġdirect": 1152,
      "Ġpres": 1153,
      "emein": 1154,
      "fr": 1155,
      "ken": 1156,
      "ĠAuf": 1157,
      "icher": 1158,
      "lag": 1159,
      "trÃ¤": 1160,
      "ote": 1161,
      "ween": 1162,
      "schie": 1163,
      "ument": 1164,
      "Ġtherefore": 1165,
      "Der": 1166,
      "Ġbetween": 1167,
      "Ġhow": 1168,
      "nehmen": 1169,
      "ľber": 1170,
      "Ã¤m": 1171,
      "enz": 1172,
      "Ġper": 1173,
      "Ġquest": 1174,
      "ĠRicht": 1175,
      "ĠGemein": 1176,
      "Ġdiff": 1177,
      "Ġparticular": 1178,
      "iÃŁ": 1179,
      "Ġgew": 1180,
      "hand": 1181,
      "now": 1182,
      "Ġson": 1183,
      "ĠMaÃŁ": 1184,
      "ĠWe": 1185,
      "zial": 1186,
      "ĠFrage": 1187,
      "Ġrel": 1188,
      "Ġviel": 1189,
      "kommen": 1190,
      "unkt": 1191,
      "Ġclear": 1192,
      "ĠEuropÃ¤ische": 1193,
      "ĠTe": 1194,
      "ame": 1195,
      "led": 1196,
      "Ġ3": 1197,
      "leg": 1198,
      "wie": 1199,
      "ov": 1200,
      "hÃ¶r": 1201,
      "mit": 1202,
      "formation": 1203,
      "ustr": 1204,
      "fÃ¼r": 1205,
      "iti": 1206,
      "iger": 1207,
      "pr": 1208,
      "Ġtak": 1209,
      "Ġeconom": 1210,
      "sible": 1211,
      "ru": 1212,
      "gel": 1213,
      "Ġbeing": 1214,
      "Ġwhen": 1215,
      "ĠZeit": 1216,
      "Ġar": 1217,
      "ĠWir": 1218,
      "fe": 1219,
      "Ã¤ch": 1220,
      "ual": 1221,
      "ision": 1222,
      "ĠÃľber": 1223,
      "Ġdisc": 1224,
      "Ġdiesen": 1225,
      "inis": 1226,
      "ĠArt": 1227,
      "rauch": 1228,
      "Ġbas": 1229,
      "Ġmade": 1230,
      "Ġzwischen": 1231,
      "Ġthose": 1232,
      "olog": 1233,
      "uro": 1234,
      "Ġsondern": 1235,
      "Ġprodu": 1236,
      "Ġref": 1237,
      "ĠEuropa": 1238,
      "zie": 1239,
      "igung": 1240,
      "Ġeines": 1241,
      "hn": 1242,
      "Ġbest": 1243,
      "kte": 1244,
      "bst": 1245,
      "ĠFor": 1246,
      "Ġhuman": 1247,
      "issen": 1248,
      "Ġpla": 1249,
      "Ġwere": 1250,
      "amp": 1251,
      "forder": 1252,
      "abe": 1253,
      "oy": 1254,
      "ues": 1255,
      "Ġdamit": 1256,
      "acht": 1257,
      "Ġfirst": 1258,
      "Ġpolitical": 1259,
      "Ġjedoch": 1260,
      "Ġthem": 1261,
      "Ġthan": 1262,
      "eration": 1263,
      "Ġass": 1264,
      "Ġmark": 1265,
      "Ġknow": 1266,
      "Ġagre": 1267,
      "ty": 1268,
      "Ġregard": 1269,
      "Ġdenn": 1270,
      "ural": 1271,
      "Ġrespon": 1272,
      "erung": 1273,
      "Ġwel": 1274,
      "Ġrights": 1275,
      "atz": 1276,
      "ĠgroÃŁ": 1277,
      "rei": 1278,
      "Ġmich": 1279,
      "zeit": 1280,
      "ublic": 1281,
      "Ġover": 1282,
      "kehr": 1283,
      "get": 1284,
      "gin": 1285,
      "Ġoff": 1286,
      "iff": 1287,
      "Ġgibt": 1288,
      "Ġrequ": 1289,
      "isten": 1290,
      "ertain": 1291,
      "ised": 1292,
      "halt": 1293,
      "Ġend": 1294,
      "Ġamend": 1295,
      "ĠTh": 1296,
      "ĠBere": 1297,
      "tro": 1298,
      "Ġgemein": 1299,
      "Ġgreat": 1300,
      "Ġissue": 1301,
      "ĠBed": 1302,
      "tw": 1303,
      "iron": 1304,
      "Ġeinz": 1305,
      "Ġganz": 1306,
      "ĠAussch": 1307,
      "weise": 1308,
      "Ġanderen": 1309,
      "Ġpoint": 1310,
      "ĠHerrn": 1311,
      "isen": 1312,
      "ss": 1313,
      "Ġro": 1314,
      "ĠBÃ¼r": 1315,
      "ĠLand": 1316,
      "ĠeuropÃ¤ischen": 1317,
      "weit": 1318,
      "stitution": 1319,
      "ĠÃĦnderungs": 1320,
      "Ġkeine": 1321,
      "viron": 1322,
      "ating": 1323,
      "day": 1324,
      "Ġrep": 1325,
      "Ġunder": 1326,
      "vironment": 1327,
      "ĠGes": 1328,
      "Ġbereits": 1329,
      "Ġthink": 1330,
      "ene": 1331,
      "eral": 1332,
      "uen": 1333,
      "Ġhabe": 1334,
      "linie": 1335,
      "Ġsowie": 1336,
      "Ġcour": 1337,
      "ĠBereich": 1338,
      "Ġinternational": 1339,
      "wn": 1340,
      "Ġnat": 1341,
      "lement": 1342,
      "elbst": 1343,
      "erd": 1344,
      "ats": 1345,
      "Ġadd": 1346,
      "Ġstat": 1347,
      "welt": 1348,
      "Ġsee": 1349,
      "Ġorder": 1350,
      "fl": 1351,
      "ĠHaus": 1352,
      "ld": 1353,
      "ient": 1354,
      "ĠIh": 1355,
      "ordnung": 1356,
      "Ã¤ndern": 1357,
      "Ġtrans": 1358,
      "enden": 1359,
      "Ã¤l": 1360,
      "ragen": 1361,
      "Ġmarket": 1362,
      "ved": 1363,
      "Ġdebate": 1364,
      "Ġfest": 1365,
      "Ġdann": 1366,
      "ett": 1367,
      "cept": 1368,
      "Ġconsider": 1369,
      "igh": 1370,
      "Ġwant": 1371,
      "arm": 1372,
      "Ġbeste": 1373,
      "Ġsocial": 1374,
      "Ġwithin": 1375,
      "eschÃ¤": 1376,
      "ateg": 1377,
      "ha": 1378,
      "isl": 1379,
      "itz": 1380,
      "isk": 1381,
      "Ġheute": 1382,
      "ĠSe": 1383,
      "els": 1384,
      "ĠCommissioner": 1385,
      "Ġtr": 1386,
      "ĠCommittee": 1387,
      "Ġunsere": 1388,
      "ĠMaÃŁnahmen": 1389,
      "Ġbelie": 1390,
      "Ġquestion": 1391,
      "Ġho": 1392,
      "erein": 1393,
      "ĠSta": 1394,
      "chten": 1395,
      "entlich": 1396,
      "read": 1397,
      "rechen": 1398,
      "achen": 1399,
      "ĠSte": 1400,
      "fin": 1401,
      "icherheit": 1402,
      "fall": 1403,
      "gend": 1404,
      "Ġhand": 1405,
      "hin": 1406,
      "Ġmany": 1407,
      "inc": 1408,
      "Ġprogram": 1409,
      "Ġcertain": 1410,
      "rim": 1411,
      "entr": 1412,
      "nis": 1413,
      "Ġfund": 1414,
      "Ġher": 1415,
      "ac": 1416,
      "very": 1417,
      "ĠwÃ¼r": 1418,
      "sel": 1419,
      "Ġrem": 1420,
      "Ġwhere": 1421,
      "Ġweil": 1422,
      "ahmen": 1423,
      "feren": 1424,
      "ĠRechts": 1425,
      "Ġac": 1426,
      "Un": 1427,
      "Ġgeht": 1428,
      "icult": 1429,
      "amen": 1430,
      "ĠCommunity": 1431,
      "Ġweiter": 1432,
      "Ġmeas": 1433,
      "Ġfre": 1434,
      "ionen": 1435,
      "ian": 1436,
      "ĠRahmen": 1437,
      "geord": 1438,
      "Ġeven": 1439,
      "2000": 1440,
      "Ġwell": 1441,
      "Ġdoes": 1442,
      "ĠParlaments": 1443,
      "eschÃ¤ft": 1444,
      "Ġpl": 1445,
      "Ġview": 1446,
      "ward": 1447,
      "ulation": 1448,
      "ope": 1449,
      "Ġresol": 1450,
      "vernment": 1451,
      "Ġmatter": 1452,
      "erson": 1453,
      "ĠMittel": 1454,
      "lagen": 1455,
      "geordne": 1456,
      "ull": 1457,
      "ile": 1458,
      "Ġadop": 1459,
      "Ġcann": 1460,
      "eth": 1461,
      "Ġagainst": 1462,
      "Ġcannot": 1463,
      "piel": 1464,
      "Ġyears": 1465,
      "uff": 1466,
      "ĠVorschlag": 1467,
      "ĠInter": 1468,
      "Ġeffect": 1469,
      "ack": 1470,
      "fÃ¼": 1471,
      "Ġenvironment": 1472,
      "Ġdevelopment": 1473,
      "ional": 1474,
      "ĠGemeinschaft": 1475,
      "vor": 1476,
      "kl": 1477,
      "Ġprote": 1478,
      "Ġbis": 1479,
      "Ġlie": 1480,
      "oth": 1481,
      "fahren": 1482,
      "ĠEntwicklung": 1483,
      "gem": 1484,
      "arkt": 1485,
      "Ġhere": 1486,
      "Ġdarauf": 1487,
      "Ġdirective": 1488,
      "Ġ5": 1489,
      "ving": 1490,
      "llung": 1491,
      "Ġdenen": 1492,
      "act": 1493,
      "ploy": 1494,
      "setz": 1495,
      "vention": 1496,
      "Ġ4": 1497,
      "Ġagreement": 1498,
      "ĠUmwelt": 1499,
      "nahme": 1500,
      "ĠBÃ¼rger": 1501,
      "There": 1502,
      "ied": 1503,
      "Ġincl": 1504,
      "Ġgemeinsam": 1505,
      "Ġpublic": 1506,
      "ĠKo": 1507,
      "bes": 1508,
      "hne": 1509,
      "ĠFin": 1510,
      "ren": 1511,
      "Ġbelieve": 1512,
      "Ġwichtig": 1513,
      "Ġsystem": 1514,
      "tru": 1515,
      "politik": 1516,
      "Ġsame": 1517,
      "Ġtechn": 1518,
      "orte": 1519,
      "itiz": 1520,
      "Ġlevel": 1521,
      "ommissar": 1522,
      "Ġger": 1523,
      "isse": 1524,
      "Ġwirk": 1525,
      "Ã¤tz": 1526,
      "An": 1527,
      "Ġsituation": 1528,
      "Ġtwo": 1529,
      "Ġcould": 1530,
      "ict": 1531,
      "ĠAbgeordne": 1532,
      "abl": 1533,
      "Ġappro": 1534,
      "Ġunserer": 1535,
      "Ġwieder": 1536,
      "ph": 1537,
      "Ġcourse": 1538,
      "Ġgesch": 1539,
      "Ġlegisl": 1540,
      "scheid": 1541,
      "ischer": 1542,
      "Ġdoch": 1543,
      "ĠCon": 1544,
      "ready": 1545,
      "geben": 1546,
      "ĠGro": 1547,
      "Ġimmer": 1548,
      "gesch": 1549,
      "Ġalready": 1550,
      "ĠRichtlinie": 1551,
      "lemen": 1552,
      "ĠKollegen": 1553,
      "Ã¶s": 1554,
      "Ġallem": 1555,
      "ough": 1556,
      "ondere": 1557,
      "Ġmon": 1558,
      "ĠMrs": 1559,
      "Ġpossible": 1560,
      "Ġuse": 1561,
      "Ġdra": 1562,
      "incip": 1563,
      "Ã¶glich": 1564,
      "ĠEuro": 1565,
      "ĠKommissar": 1566,
      "Ġprincip": 1567,
      "Ġfinan": 1568,
      "mittel": 1569,
      "Ġens": 1570,
      "red": 1571,
      "Ġmir": 1572,
      "immung": 1573,
      "Ġsollten": 1574,
      "Ġzwe": 1575,
      "gehen": 1576,
      "cted": 1577,
      "Ġreal": 1578,
      "ory": 1579,
      "rimin": 1580,
      "Ġselbst": 1581,
      "Ġpar": 1582,
      "Ġaut": 1583,
      "Ġeconomic": 1584,
      "inister": 1585,
      "Ġgood": 1586,
      "Ġvom": 1587,
      "Ġsollte": 1588,
      "As": 1589,
      "Ġdiscuss": 1590,
      "richt": 1591,
      "Ġbring": 1592,
      "ĠdafÃ¼r": 1593,
      "Ġhel": 1594,
      "Ġmost": 1595,
      "ĠSo": 1596,
      "ited": 1597,
      "stÃ¤nd": 1598,
      "king": 1599,
      "ĠunterstÃ¼tz": 1600,
      "Ġhad": 1601,
      "fÃ¤": 1602,
      "Ġcitiz": 1603,
      "Ġsagen": 1604,
      "Ġevery": 1605,
      "tend": 1606,
      "Ġter": 1607,
      "ĠGeb": 1608,
      "Ã¤re": 1609,
      "Ġhal": 1610,
      "Ġletz": 1611,
      "udget": 1612,
      "ffe": 1613,
      "Ġyour": 1614,
      "Ġgleich": 1615,
      "Ġcountry": 1616,
      "Ġverb": 1617,
      "Ġmeasures": 1618,
      "essen": 1619,
      "How": 1620,
      "Ġtoo": 1621,
      "Ġprocess": 1622,
      "Ġnum": 1623,
      "ater": 1624,
      "okrat": 1625,
      "Ġincre": 1626,
      "ĠPolitik": 1627,
      "Ã¤ÃŁ": 1628,
      "way": 1629,
      "Ġvote": 1630,
      "bens": 1631,
      "such": 1632,
      "operation": 1633,
      "kon": 1634,
      "cond": 1635,
      "Ġown": 1636,
      "trag": 1637,
      "Ġspec": 1638,
      "Ġmay": 1639,
      "Ġetw": 1640,
      "Ġihrer": 1641,
      "Ġmuch": 1642,
      "trÃ¤ge": 1643,
      "That": 1644,
      "utions": 1645,
      "laub": 1646,
      "isierung": 1647,
      "Ġmeine": 1648,
      "satz": 1649,
      "ĠHin": 1650,
      "Ġstill": 1651,
      "Ġbin": 1652,
      "Ġgu": 1653,
      "ĠProblem": 1654,
      "ently": 1655,
      "itiative": 1656,
      "ritt": 1657,
      "Ġtaken": 1658,
      "Ġser": 1659,
      "ĠThem": 1660,
      "Ġable": 1661,
      "Ġwurden": 1662,
      "beral": 1663,
      "Ġsozial": 1664,
      "Ġconf": 1665,
      "Ġfut": 1666,
      "Ġorgan": 1667,
      "immt": 1668,
      "ority": 1669,
      "ĠFraktion": 1670,
      "ks": 1671,
      "Ġ2000": 1672,
      "Ġcontin": 1673,
      "Ġfuture": 1674,
      "Ġsc": 1675,
      "Ġinformation": 1676,
      "Ġthen": 1677,
      "ĠSicherheit": 1678,
      "ful": 1679,
      "itions": 1680,
      "Ġput": 1681,
      "Ġcase": 1682,
      "omen": 1683,
      "Ġdazu": 1684,
      "Ġsaid": 1685,
      "Wh": 1686,
      "Ġthro": 1687,
      "Ġcommon": 1688,
      "erg": 1689,
      "Ġserv": 1690,
      "Ã¼hren": 1691,
      "Ġgroup": 1692,
      "ents": 1693,
      "besondere": 1694,
      "Ġcur": 1695,
      "Ã¼rlich": 1696,
      "punkt": 1697,
      "Ġboth": 1698,
      "lossen": 1699,
      "Ã¤lt": 1700,
      "Ġhope": 1701,
      "Ġrespect": 1702,
      "Ġtoday": 1703,
      "ves": 1704,
      "ĠÃ¶": 1705,
      "wort": 1706,
      "Ġarea": 1707,
      "Ġcitizens": 1708,
      "reit": 1709,
      "ason": 1710,
      "Ġatt": 1711,
      "Ġcar": 1712,
      "zus": 1713,
      "Ġhis": 1714,
      "inn": 1715,
      "lungs": 1716,
      "ispiel": 1717,
      "vers": 1718,
      "lage": 1719,
      "uer": 1720,
      "Ġgel": 1721,
      "Ġnumber": 1722,
      "Ġlast": 1723,
      "Ã¶glichkeit": 1724,
      "Ġwen": 1725,
      "ĠFl": 1726,
      "ĠMein": 1727,
      "halts": 1728,
      "Ġpra": 1729,
      "chie": 1730,
      "ĠSp": 1731,
      "ages": 1732,
      "ĠBerichterst": 1733,
      "Ġfra": 1734,
      "Ġest": 1735,
      "Ġinterest": 1736,
      "Ġfar": 1737,
      "ster": 1738,
      "klÃ¤r": 1739,
      "bat": 1740,
      "Ġfo": 1741,
      "wohl": 1742,
      "Ġinvol": 1743,
      "ruck": 1744,
      "Ġlo": 1745,
      "ĠOr": 1746,
      "ĠZiel": 1747,
      "ices": 1748,
      "ade": 1749,
      "Ġnun": 1750,
      "antrag": 1751,
      "Ã¶l": 1752,
      "ail": 1753,
      "orteur": 1754,
      "arge": 1755,
      "ĠIhnen": 1756,
      "pporteur": 1757,
      "'s": 1758,
      "ĠWirtschaft": 1759,
      "Ġwhy": 1760,
      "rechte": 1761,
      "Ġthrough": 1762,
      "Ġaction": 1763,
      "Ġele": 1764,
      "Sie": 1765,
      "Ġreason": 1766,
      "ĠmÃ¶glich": 1767,
      "schieden": 1768,
      "Ġneg": 1769,
      "erk": 1770,
      "Ġask": 1771,
      "Ġwollen": 1772,
      "les": 1773,
      "Wenn": 1774,
      "antwort": 1775,
      "Ġjetzt": 1776,
      "Ġinsbesondere": 1777,
      "Be": 1778,
      "air": 1779,
      "io": 1780,
      "ĠProgram": 1781,
      "ierungs": 1782,
      "ample": 1783,
      "Ġachie": 1784,
      "Ġindustr": 1785,
      "Ġohne": 1786,
      "ting": 1787,
      "Ġausge": 1788,
      "Ġrapporteur": 1789,
      "ĠMon": 1790,
      "trib": 1791,
      "Ġaid": 1792,
      "uring": 1793,
      "Ġexample": 1794,
      "ĠMe": 1795,
      "ital": 1796,
      "ablish": 1797,
      "gangen": 1798,
      "zug": 1799,
      "genommen": 1800,
      "Ġbudget": 1801,
      "ĠVerein": 1802,
      "zeug": 1803,
      "reichen": 1804,
      "Ã¼ÃŁ": 1805,
      "aben": 1806,
      "Ġprev": 1807,
      "wed": 1808,
      "eln": 1809,
      "However": 1810,
      "man": 1811,
      "Ġmeiner": 1812,
      "Da": 1813,
      "ince": 1814,
      "ĠDem": 1815,
      "itÃ¤": 1816,
      "urther": 1817,
      "Ġsect": 1818,
      "Ġcooperation": 1819,
      "derung": 1820,
      "ĠBerichterstatter": 1821,
      "Fra": 1822,
      "Ġlegal": 1823,
      "stellen": 1824,
      "spar": 1825,
      "ĠLÃ¤nder": 1826,
      "zeich": 1827,
      "Ġposition": 1828,
      "Ġpresent": 1829,
      "Ġobject": 1830,
      "Ġthank": 1831,
      "alth": 1832,
      "ĠwÃ¼rde": 1833,
      "licher": 1834,
      "Ã¶ÃŁ": 1835,
      "Des": 1836,
      "Ġeinige": 1837,
      "Ġlaw": 1838,
      "Ġfind": 1839,
      "Ġbegr": 1840,
      "Ġensure": 1841,
      "Ġur": 1842,
      "Ġsom": 1843,
      "ically": 1844,
      "Diese": 1845,
      "ĠAbst": 1846,
      "Ġ200": 1847,
      "dem": 1848,
      "Ġnecess": 1849,
      "Ġfinancial": 1850,
      "gest": 1851,
      "Ġget": 1852,
      "gese": 1853,
      "ount": 1854,
      "Ġplace": 1855,
      "Ġamendments": 1856,
      "Ġsim": 1857,
      "ĠJahren": 1858,
      "Ġestablish": 1859,
      "ium": 1860,
      "Ġcompet": 1861,
      "Ġneuen": 1862,
      "Ġallen": 1863,
      "Ġopin": 1864,
      "Ġdemoc": 1865,
      "ace": 1866,
      "tellt": 1867,
      "Ġmain": 1868,
      "tegr": 1869,
      "itive": 1870,
      "ĠZusammenarbeit": 1871,
      "Ġmaj": 1872,
      "ouse": 1873,
      "ktur": 1874,
      "heiten": 1875,
      "But": 1876,
      "licht": 1877,
      "Ã¤ng": 1878,
      "ilfe": 1879,
      "Ġmeans": 1880,
      "ĠkÃ¶nn": 1881,
      "Ġparticularly": 1882,
      "bewer": 1883,
      "wÃ¤": 1884,
      "Ġstand": 1885,
      "Ġschon": 1886,
      "Ġareas": 1887,
      "Ġange": 1888,
      "unden": 1889,
      "Ġproblems": 1890,
      "Ġproced": 1891,
      "ble": 1892,
      "ĠwÃ¤re": 1893,
      "ĠFall": 1894,
      "ĠFinanz": 1895,
      "Ġresolution": 1896,
      "Ġtun": 1897,
      "ond": 1898,
      "ordin": 1899,
      "unft": 1900,
      "ĠRecht": 1901,
      "ollow": 1902,
      "Ġauth": 1903,
      "ret": 1904,
      "ĠEntschlieÃŁ": 1905,
      "Ġ1999": 1906,
      "ĠAs": 1907,
      "ether": 1908,
      "hol": 1909,
      "ĠBeit": 1910,
      "aff": 1911,
      "ential": 1912,
      "ĠÃĸ": 1913,
      "Ġwissen": 1914,
      "entral": 1915,
      "Ġworld": 1916,
      "ployment": 1917,
      "Ġbesch": 1918,
      "Im": 1919,
      "Ġgiven": 1920,
      "ĠÃĦnderungsan": 1921,
      "So": 1922,
      "ismus": 1923,
      "Ġandere": 1924,
      "ften": 1925,
      "ktor": 1926,
      "Ġseine": 1927,
      "Ġ'": 1928,
      "falls": 1929,
      "affen": 1930,
      "ĠGroup": 1931,
      "nisse": 1932,
      "Ġimpro": 1933,
      "Ġimplement": 1934,
      "ĠGebie": 1935,
      "ĠEntscheid": 1936,
      "work": 1937,
      "Ġentsp": 1938,
      "own": 1939,
      "Ġfull": 1940,
      "ird": 1941,
      "deut": 1942,
      "If": 1943,
      "Ġset": 1944,
      "Ġinclud": 1945,
      "Ġbefore": 1946,
      "orities": 1947,
      "ĠFragen": 1948,
      "ability": 1949,
      "usses": 1950,
      "je": 1951,
      "ĠHa": 1952,
      "Ġform": 1953,
      "Ġrepres": 1954,
      "Ġeinmal": 1955,
      "assung": 1956,
      "Ġdiffer": 1957,
      "grund": 1958,
      "Ġgut": 1959,
      "Ã¤uÃŁ": 1960,
      "gele": 1961,
      "ĠZu": 1962,
      "Ġ6": 1963,
      "Ġsign": 1964,
      "Ġlong": 1965,
      "tens": 1966,
      "ĠNamen": 1967,
      "ĠArbeits": 1968,
      "br": 1969,
      "rache": 1970,
      "Ġsicher": 1971,
      "walt": 1972,
      "fter": 1973,
      "Ġgive": 1974,
      "ĠTeil": 1975,
      "Ġmachen": 1976,
      "Ġterms": 1977,
      "hang": 1978,
      "ĠMÃ¶glichkeit": 1979,
      "ettbewer": 1980,
      "Ġav": 1981,
      "ichts": 1982,
      "ortug": 1983,
      "Ġfollow": 1984,
      "Ġetwas": 1985,
      "ĠAl": 1986,
      "ĠHand": 1987,
      "Ġopinion": 1988,
      "ĠnatÃ¼rlich": 1989,
      "luÃŁ": 1990,
      "Ġwish": 1991,
      "ĠTreat": 1992,
      "Ġzwar": 1993,
      "amil": 1994,
      "Ġexpress": 1995,
      "schr": 1996,
      "Ġwithout": 1997,
      "lichkeit": 1998,
      "Ġprom": 1999,
      "Ġneue": 2000,
      "ality": 2001,
      "immen": 2002,
      "igten": 2003,
      "ettbewerb": 2004,
      "Ġissues": 2005,
      "Ġbek": 2006,
      "Ġke": 2007,
      "Ġsec": 2008,
      "Ã¶lk": 2009,
      "Ġnecessary": 2010,
      "eld": 2011,
      "ĠPl": 2012,
      "Ġwirtschaft": 2013,
      "tra": 2014,
      "Ġextre": 2015,
      "Ġhowever": 2016,
      "ĠQ": 2017,
      "abei": 2018,
      "Ġhigh": 2019,
      "ĠUnternehmen": 2020,
      "Ġconcerned": 2021,
      "Ġcurr": 2022,
      "Ġrequire": 2023,
      "Ġrat": 2024,
      "ĠUnterstÃ¼tz": 2025,
      "ately": 2026,
      "rÃ¼": 2027,
      "Ġ%": 2028,
      "Ġdeal": 2029,
      "ĠMeinung": 2030,
      "fÃ¼hrt": 2031,
      "urs": 2032,
      "ĠRegierung": 2033,
      "ho": 2034,
      "elf": 2035,
      "Ġallow": 2036,
      "idency": 2037,
      "Ġzwei": 2038,
      "Ġbetr": 2039,
      "Ġgest": 2040,
      "Ġredu": 2041,
      "Ġnotwend": 2042,
      "strument": 2043,
      "Ġprotection": 2044,
      "cing": 2045,
      "ys": 2046,
      "ĠHouse": 2047,
      "ĠFre": 2048,
      "fit": 2049,
      "bleme": 2050,
      "utung": 2051,
      "Ġgeb": 2052,
      "ĠVerbrauch": 2053,
      "Ġserious": 2054,
      "ĠFe": 2055,
      "half": 2056,
      "fÃ¼hrung": 2057,
      "Ġworden": 2058,
      "Ġprogramme": 2059,
      "vour": 2060,
      "Ġbehalf": 2061,
      "ĠUnterstÃ¼tzung": 2062,
      "tal": 2063,
      "wirtschaft": 2064,
      "ĠWelt": 2065,
      "Ġgef": 2066,
      "ĠStand": 2067,
      "Ġprinciple": 2068,
      "overnment": 2069,
      "anden": 2070,
      "Ġwhether": 2071,
      "zip": 2072,
      "uft": 2073,
      "ĠGer": 2074,
      "gleich": 2075,
      "ost": 2076,
      "itor": 2077,
      "annt": 2078,
      "ught": 2079,
      "ĠSchutz": 2080,
      "uge": 2081,
      "ĠZusammenhang": 2082,
      "inder": 2083,
      "Ġmor": 2084,
      "ying": 2085,
      "Ġconsum": 2086,
      "ĠSituation": 2087,
      "agement": 2088,
      "Ġbesteht": 2089,
      "Ġdecision": 2090,
      "sibility": 2091,
      "ante": 2092,
      "isions": 2093,
      "Ġwes": 2094,
      "ĠLÃ¤ndern": 2095,
      "gung": 2096,
      "etzen": 2097,
      "ĠdarÃ¼ber": 2098,
      "ĠMembers": 2099,
      "ĠHaushalts": 2100,
      "lex": 2101,
      "weisen": 2102,
      "verkehr": 2103,
      "ĠStra": 2104,
      "stru": 2105,
      "Ġcontro": 2106,
      "ence": 2107,
      "Ġspeak": 2108,
      "ĠRates": 2109,
      "Ġsm": 2110,
      "Ġklar": 2111,
      "iften": 2112,
      "Ġerforder": 2113,
      "bene": 2114,
      "omp": 2115,
      "ible": 2116,
      "Ġbed": 2117,
      "llschaft": 2118,
      "innen": 2119,
      "agt": 2120,
      "ules": 2121,
      "Ġdifferent": 2122,
      "ĠIch": 2123,
      "ĠHer": 2124,
      "Ġwomen": 2125,
      "undheit": 2126,
      "Ġbesonder": 2127,
      "wert": 2128,
      "Ġseit": 2129,
      "Ġwhole": 2130,
      "ĠauÃŁ": 2131,
      "Ġsu": 2132,
      "Ġglaub": 2133,
      "ache": 2134,
      "ĠzurÃ¼ck": 2135,
      "gemein": 2136,
      "Ġdel": 2137,
      "Ġeing": 2138,
      "Ġkommen": 2139,
      "ĠDebat": 2140,
      "come": 2141,
      "ende": 2142,
      "anken": 2143,
      "Ġsince": 2144,
      "ĠnÃ¤m": 2145,
      "osov": 2146,
      "ĠnÃ¤mlich": 2147,
      "ierten": 2148,
      "Er": 2149,
      "ĠThema": 2150,
      "zieh": 2151,
      "ilit": 2152,
      "Ã¼cksicht": 2153,
      "Ġihren": 2154,
      "gress": 2155,
      "Ġregional": 2156,
      "ĠÃ¶ff": 2157,
      "stellung": 2158,
      "Ġdifficult": 2159,
      "ĠPrÃ¤sidentin": 2160,
      "01": 2161,
      "Ġgeben": 2162,
      "neh": 2163,
      "von": 2164,
      "illion": 2165,
      "ferenz": 2166,
      "Ã¤rk": 2167,
      "zÃ¼": 2168,
      "ided": 2169,
      "ĠIntern": 2170,
      "Ġconcl": 2171,
      "Ġdeut": 2172,
      "ginnen": 2173,
      "ĠKosov": 2174,
      "ning": 2175,
      "une": 2176,
      "Ġkomm": 2177,
      "Ġmin": 2178,
      "Ġpolitischen": 2179,
      "ikel": 2180,
      "Ġproposals": 2181,
      "urity": 2182,
      "Ġpoin": 2183,
      "Ġviele": 2184,
      "Ġcommit": 2185,
      "ĠBesch": 2186,
      "ĠWettbewerb": 2187,
      "Ġlegislation": 2188,
      "Ġvoll": 2189,
      "ĠBet": 2190,
      "Ġ7": 2191,
      "Ġ8": 2192,
      "sequ": 2193,
      "ĠAbgeordneten": 2194,
      "rieden": 2195,
      "ĠMinister": 2196,
      "ĠAbstimmung": 2197,
      "Ġfol": 2198,
      "ĠProbleme": 2199,
      "Ã¼nd": 2200,
      "lick": 2201,
      "Ġstehen": 2202,
      "Ġfurther": 2203,
      "Frau": 2204,
      "ialog": 2205,
      "Ġopport": 2206,
      "Ein": 2207,
      "ock": 2208,
      "ĠgrÃ¶ÃŁ": 2209,
      "Ġ9": 2210,
      "ander": 2211,
      "Ġsecond": 2212,
      "amental": 2213,
      "Ġenvironmental": 2214,
      "racht": 2215,
      "Ġbasis": 2216,
      "ĠBede": 2217,
      "Ġwirklich": 2218,
      "Ġinvest": 2219,
      "ĠFisch": 2220,
      "alk": 2221,
      "truktur": 2222,
      "ĠBedeutung": 2223,
      "markt": 2224,
      "kunft": 2225,
      "ale": 2226,
      "Ġsubject": 2227,
      "ifft": 2228,
      "Ġadopted": 2229,
      "sprache": 2230,
      "Deshalb": 2231,
      "Ġcr": 2232,
      "liegen": 2233,
      "tain": 2234,
      "Ġja": 2235,
      "ĠFrauen": 2236,
      "lob": 2237,
      "entlichen": 2238,
      "Ġcome": 2239,
      "par": 2240,
      "Ġbetrifft": 2241,
      "Ġaccept": 2242,
      "Wie": 2243,
      "Ġdarf": 2244,
      "ĠdÃ¼r": 2245,
      "Ġinde": 2246,
      "Ġfew": 2247,
      "Ġlook": 2248,
      "Ã¤chst": 2249,
      "ĠKosovo": 2250,
      "Was": 2251,
      "hall": 2252,
      "ivil": 2253,
      "adam": 2254,
      "bed": 2255,
      "zept": 2256,
      "Ġsoc": 2257,
      "ĠStaaten": 2258,
      "ahre": 2259,
      "Ġseiner": 2260,
      "Ġcre": 2261,
      "Ġbess": 2262,
      "Ġmention": 2263,
      "mework": 2264,
      "Ġhealth": 2265,
      "Ġide": 2266,
      "pecial": 2267,
      "Ġmeet": 2268,
      "Ã¼nft": 2269,
      "ĠÃĦnderungsantrÃ¤ge": 2270,
      "Ġcl": 2271,
      "Ġval": 2272,
      "Ġproduct": 2273,
      "Ġmuss": 2274,
      "Ġpract": 2275,
      "Ġ19": 2276,
      "Ġreform": 2277,
      "Ġcontrib": 2278,
      "199": 2279,
      "Ġback": 2280,
      "On": 2281,
      "reif": 2282,
      "leicht": 2283,
      "Ġextrem": 2284,
      "Ġeben": 2285,
      "ĠDisk": 2286,
      "Ġfavour": 2287,
      "liament": 2288,
      "itt": 2289,
      "Ġzweit": 2290,
      "Ġcrit": 2291,
      "gaben": 2292,
      "Ġcall": 2293,
      "ĠLi": 2294,
      "other": 2295,
      "Ġpri": 2296,
      "Ġproject": 2297,
      "Ġhapp": 2298,
      "ĠVorschlÃ¤": 2299,
      "ĠTreaty": 2300,
      "rachten": 2301,
      "Ġstrateg": 2302,
      "ĠDebatte": 2303,
      "ified": 2304,
      "Ġap": 2305,
      "Ġword": 2306,
      "ĠBest": 2307,
      "Ġproposed": 2308,
      "Ġspecific": 2309,
      "Ġshall": 2310,
      "Ġtransport": 2311,
      "wendung": 2312,
      "Ġcond": 2313,
      "Ġcost": 2314,
      "Ġregulation": 2315,
      "Ġir": 2316,
      "ĠAm": 2317,
      "por": 2318,
      "What": 2319,
      "di": 2320,
      "ĠÃ¤uÃŁ": 2321,
      "ĠAusschuÃŁ": 2322,
      "Ġnext": 2323,
      "tem": 2324,
      "Ġresult": 2325,
      "wirk": 2326,
      "ganisation": 2327,
      "Ġdavon": 2328,
      "Ġabs": 2329,
      "ĠAussprache": 2330,
      "Ġcommun": 2331,
      "war": 2332,
      "urz": 2333,
      "abil": 2334,
      "Ġgent": 2335,
      "Ġdaher": 2336,
      "ife": 2337,
      "iety": 2338,
      "Ġquite": 2339,
      "Ġhelp": 2340,
      "stand": 2341,
      "ienst": 2342,
      "ktiv": 2343,
      "ĠUnited": 2344,
      "ĠunterstÃ¼tzen": 2345,
      "Ġsector": 2346,
      "reffen": 2347,
      "adies": 2348,
      "rÃ¤n": 2349,
      "inzip": 2350,
      "vement": 2351,
      "wier": 2352,
      "ĠEm": 2353,
      "Ġprogress": 2354,
      "Ġresour": 2355,
      "ĠSozial": 2356,
      "ĠbegrÃ¼ÃŁ": 2357,
      "ĠInformation": 2358,
      "Ġletzten": 2359,
      "glichen": 2360,
      "Ġdone": 2361,
      "ising": 2362,
      "raft": 2363,
      "oti": 2364,
      "Ġrepresent": 2365,
      "upt": 2366,
      "ĠArtikel": 2367,
      "druck": 2368,
      "Ġsens": 2369,
      "ichte": 2370,
      "Ġfinanz": 2371,
      "ep": 2372,
      "fte": 2373,
      "Ġanges": 2374,
      "Ġgentlemen": 2375,
      "ystems": 2376,
      "oint": 2377,
      "Ġbestimm": 2378,
      "TO": 2379,
      "hip": 2380,
      "lungen": 2381,
      "Ġeigen": 2382,
      "ĠVerantwort": 2383,
      "ĠLÃ¶s": 2384,
      "ĠDie": 2385,
      "mes": 2386,
      "Ġclearly": 2387,
      "als": 2388,
      "ĠAnge": 2389,
      "wards": 2390,
      "Ġlang": 2391,
      "Ã¤hrend": 2392,
      "Ġaccess": 2393,
      "Ġverschieden": 2394,
      "iben": 2395,
      "Ġricht": 2396,
      "Ġrisk": 2397,
      "ĠKontro": 2398,
      "Ġstatt": 2399,
      "ĠgegenÃ¼ber": 2400,
      "Ġperson": 2401,
      "ler": 2402,
      "ually": 2403,
      "ieder": 2404,
      "stitutions": 2405,
      "ude": 2406,
      "Ġvar": 2407,
      "ĠVerbraucher": 2408,
      "Ġframework": 2409,
      "Ġequ": 2410,
      "ĠState": 2411,
      "Ġeinzel": 2412,
      "ively": 2413,
      "ĠWeise": 2414,
      "fach": 2415,
      "ĠMa": 2416,
      "atives": 2417,
      "ĠAnsicht": 2418,
      "arante": 2419,
      "Ġrecht": 2420,
      "ĠBes": 2421,
      "Ġander": 2422,
      "ĠRed": 2423,
      "ervor": 2424,
      "ased": 2425,
      "Ġnegoti": 2426,
      "Ġgoing": 2427,
      "All": 2428,
      "ĠNo": 2429,
      "lobal": 2430,
      "ĠVol": 2431,
      "schied": 2432,
      "ropri": 2433,
      "ugen": 2434,
      "ffair": 2435,
      "recht": 2436,
      "folg": 2437,
      "pecially": 2438,
      "Ġindustry": 2439,
      "gew": 2440,
      "Ġrev": 2441,
      "ierte": 2442,
      "Ġchild": 2443,
      "hÃ¤ng": 2444,
      "Ġworking": 2445,
      "yl": 2446,
      "gricult": 2447,
      "ried": 2448,
      "ways": 2449,
      "ĠInd": 2450,
      "Ġcommittee": 2451,
      "ĠAfr": 2452,
      "Ġ15": 2453,
      "Ġaccount": 2454,
      "Ġderen": 2455,
      "ĠgehÃ¶r": 2456,
      "Ġimm": 2457,
      "fet": 2458,
      "iele": 2459,
      "Ġdefin": 2460,
      "prochen": 2461,
      "Ġrole": 2462,
      "maÃŁ": 2463,
      "ĠTran": 2464,
      "Ġstellen": 2465,
      "Ġapproach": 2466,
      "Ġoper": 2467,
      "ĠMenschenrechte": 2468,
      "unÃ¤chst": 2469,
      "Ġunseren": 2470,
      "Ġregul": 2471,
      "icle": 2472,
      "ĠMill": 2473,
      "Ġespecially": 2474,
      "hÃ¤lt": 2475,
      "Ġair": 2476,
      "ilt": 2477,
      "Ġguarante": 2478,
      "ĠPunkt": 2479,
      "ĠJahre": 2480,
      "Ġadv": 2481,
      "ĠÃĦnderungsantrag": 2482,
      "eich": 2483,
      "Ġclos": 2484,
      "fra": 2485,
      "ines": 2486,
      "Ġvorgesch": 2487,
      "armon": 2488,
      "ething": 2489,
      "Ġgesagt": 2490,
      "Ġhervor": 2491,
      "ĠÃ¼": 2492,
      "aussch": 2493,
      "igkeiten": 2494,
      "Ġkonk": 2495,
      "Ġcontrol": 2496,
      "att": 2497,
      "ĠVertrag": 2498,
      "Ġinstitutions": 2499,
      "Ġpow": 2500,
      "Ġresources": 2501,
      "zw": 2502,
      "erien": 2503,
      "unds": 2504,
      "ielen": 2505,
      "fety": 2506,
      "osition": 2507,
      "legenheit": 2508,
      "iar": 2509,
      "Ġagree": 2510,
      "Ġstru": 2511,
      "Ġintegr": 2512,
      "Ġbro": 2513,
      "ĠGen": 2514,
      "fer": 2515,
      "kÃ¤m": 2516,
      "ĠPr": 2517,
      "ĠDi": 2518,
      "Ġcompan": 2519,
      "ĠThe": 2520,
      "ingungen": 2521,
      "dert": 2522,
      "ffairs": 2523,
      "Ġ-,": 2524,
      "ists": 2525,
      "Ġtax": 2526,
      "For": 2527,
      "Ġpers": 2528,
      "Ġorganis": 2529,
      "etzung": 2530,
      "Ġsomething": 2531,
      "ĠZukunft": 2532,
      "Ġchange": 2533,
      "Al": 2534,
      "edom": 2535,
      "Ġunderst": 2536,
      "ĠeuropÃ¤ische": 2537,
      "Ġafter": 2538,
      "ĠBr": 2539,
      "ards": 2540,
      "Ġused": 2541,
      "Aber": 2542,
      "gement": 2543,
      "ĠNach": 2544,
      "ference": 2545,
      "gelegt": 2546,
      "ĠhÃ¤t": 2547,
      "ĠLage": 2548,
      "ights": 2549,
      "Ġdaran": 2550,
      "gesehen": 2551,
      "Ġsociety": 2552,
      "Ġpeace": 2553,
      "Ġextremely": 2554,
      "ared": 2555,
      "Ġgeneral": 2556,
      "Ġpay": 2557,
      "ĠBeschÃ¤ft": 2558,
      "Ġrules": 2559,
      "ĠFran": 2560,
      "Ġemployment": 2561,
      "Ġdeshalb": 2562,
      "ĠRechte": 2563,
      "Ġumf": 2564,
      "Ġappropri": 2565,
      "Ġsimp": 2566,
      "Ġcolle": 2567,
      "ivid": 2568,
      "ktionen": 2569,
      "Ġdown": 2570,
      "Ġeffort": 2571,
      "Ġbew": 2572,
      "Ġrather": 2573,
      "1999": 2574,
      "Ġbeg": 2575,
      "ension": 2576,
      "ildung": 2577,
      "mÃ¶": 2578,
      "ĠEntwicklungs": 2579,
      "ĠfÃ¼hren": 2580,
      "ield": 2581,
      "Ġgesam": 2582,
      "ĠKolleginnen": 2583,
      "Ġliegt": 2584,
      "Ġze": 2585,
      "ĠErgeb": 2586,
      "ogen": 2587,
      "ĠFort": 2588,
      "ĠTages": 2589,
      "ĠUN": 2590,
      "wÃ¤r": 2591,
      "Ġlassen": 2592,
      "Ġ1998": 2593,
      "Ġduring": 2594,
      "ĠAusschusses": 2595,
      "Ġvorgeschlagen": 2596,
      "fort": 2597,
      "Madam": 2598,
      "rodu": 2599,
      "Ġel": 2600,
      "Ġitself": 2601,
      "Ġsafety": 2602,
      "Ġpositive": 2603,
      "erdings": 2604,
      "Mein": 2605,
      "Ġlim": 2606,
      "treten": 2607,
      "Ġstate": 2608,
      "Ġcor": 2609,
      "ennt": 2610,
      "ĠkÃ¶nnte": 2611,
      "ases": 2612,
      "raum": 2613,
      "Ġmember": 2614,
      "iving": 2615,
      "Ġsteht": 2616,
      "Ġaddition": 2617,
      "verstÃ¤nd": 2618,
      "oney": 2619,
      "Ġaw": 2620,
      "Ġvo": 2621,
      "Ġexist": 2622,
      "Ġimportance": 2623,
      "rech": 2624,
      "Ġerst": 2625,
      "pfung": 2626,
      "Ġtowards": 2627,
      "Ġladies": 2628,
      "Ġsowohl": 2629,
      "Ġbetter": 2630,
      "Ġprovide": 2631,
      "genda": 2632,
      "Ġzusammen": 2633,
      "angen": 2634,
      "Ġbal": 2635,
      "Ġaller": 2636,
      "Ġresponsibility": 2637,
      "reten": 2638,
      "iesen": 2639,
      "ĠInstitution": 2640,
      "Ġservices": 2641,
      "ĠTur": 2642,
      "Ġglaube": 2643,
      "Ġthird": 2644,
      "ĠRolle": 2645,
      "merk": 2646,
      "Ġbrauch": 2647,
      "ĠEbene": 2648,
      "Ġaccord": 2649,
      "itÃ¤ten": 2650,
      "ativen": 2651,
      "Ġforward": 2652,
      "icient": 2653,
      "Ġ12": 2654,
      "plan": 2655,
      "Ġess": 2656,
      "ĠwÃ¤hrend": 2657,
      "Ġmed": 2658,
      "ĠZust": 2659,
      "ccess": 2660,
      "Ġgovern": 2661,
      "Ġbestehen": 2662,
      "vÃ¶lk": 2663,
      "Ġcap": 2664,
      "ters": 2665,
      "ĠUms": 2666,
      "Ġcontinue": 2667,
      "ean": 2668,
      "Ġderzeit": 2669,
      "Nach": 2670,
      "blick": 2671,
      "komm": 2672,
      "Ġeinge": 2673,
      "elle": 2674,
      "Ġread": 2675,
      "Ġgovernment": 2676,
      "ĠEUR": 2677,
      "Ġprogrammes": 2678,
      "Ġdr": 2679,
      "Ġdabei": 2680,
      "ctions": 2681,
      "Ġlarge": 2682,
      "ĠLiberal": 2683,
      "pend": 2684,
      "Ġsecurity": 2685,
      "Ġthree": 2686,
      "ika": 2687,
      "kten": 2688,
      "Ġinform": 2689,
      "Ġdire": 2690,
      "ĠVerordnung": 2691,
      "Ġcompetition": 2692,
      "Ġsuff": 2693,
      "Ġfeel": 2694,
      "ĠAmend": 2695,
      "Ġopen": 2696,
      "onds": 2697,
      "Europ": 2698,
      "Ġzust": 2699,
      "Ġdarin": 2700,
      "Ġcult": 2701,
      "old": 2702,
      "ĠberÃ¼cksicht": 2703,
      "ĠgewÃ¤hr": 2704,
      "Ġessential": 2705,
      "ĠParte": 2706,
      "pflicht": 2707,
      "unde": 2708,
      "igungs": 2709,
      "ĠMarkt": 2710,
      "amt": 2711,
      "gether": 2712,
      "Ġsollen": 2713,
      "ĠHilfe": 2714,
      "ath": 2715,
      "Ġmillion": 2716,
      "Ġsozialen": 2717,
      "ĠPresidency": 2718,
      "Ġpriv": 2719,
      "Ġsmall": 2720,
      "Ġpoints": 2721,
      "iation": 2722,
      "Ġmoney": 2723,
      "Ġstren": 2724,
      "linien": 2725,
      "ratic": 2726,
      "ĠPerson": 2727,
      "ably": 2728,
      "Ġ20": 2729,
      "Ġbef": 2730,
      "Ġadm": 2731,
      "unehmen": 2732,
      "Ġvarious": 2733,
      "Mit": 2734,
      "Ġneeds": 2735,
      "ĠStr": 2736,
      "though": 2737,
      "Ġcomple": 2738,
      "ĠVorschlÃ¤ge": 2739,
      "Ġje": 2740,
      "sid": 2741,
      "term": 2742,
      "ierungen": 2743,
      "Ġeach": 2744,
      "Ġconditions": 2745,
      "Ġleast": 2746,
      "Ġactiv": 2747,
      "Und": 2748,
      "Ġeinigen": 2749,
      "ĠAuff": 2750,
      "gestellt": 2751,
      "ĠgroÃŁen": 2752,
      "Ġindivid": 2753,
      "Ġnationalen": 2754,
      "ustrie": 2755,
      "Ġfundamental": 2756,
      "Ġdid": 2757,
      "schutz": 2758,
      "Ġdrei": 2759,
      "ina": 2760,
      "iness": 2761,
      "Ġbene": 2762,
      "Ġinitiative": 2763,
      "Ġreally": 2764,
      "ĠVerkehr": 2765,
      "ĠHe": 2766,
      "ĠProdu": 2767,
      "hil": 2768,
      "sichtlich": 2769,
      "ĠDemokrat": 2770,
      "Ġmaking": 2771,
      "kÃ¤mpfung": 2772,
      "Ġaim": 2773,
      "gabe": 2774,
      "Ġpolicies": 2775,
      "Ġprec": 2776,
      "Ġonce": 2777,
      "setzung": 2778,
      "reg": 2779,
      "Ġmilit": 2780,
      "stehen": 2781,
      "Ġless": 2782,
      "Ġaufge": 2783,
      "Ġwelcome": 2784,
      "Ġbesonders": 2785,
      "Ġunderstand": 2786,
      "wÃ¤rt": 2787,
      "sweise": 2788,
      "ises": 2789,
      "ĠdÃ¼rfen": 2790,
      "ĠEuropas": 2791,
      "Ġstart": 2792,
      "Ġprocedure": 2793,
      "Ġappe": 2794,
      "oment": 2795,
      "ĠPortug": 2796,
      "ĠMed": 2797,
      "Ġrecog": 2798,
      "Ġhoffe": 2799,
      "bau": 2800,
      "urn": 2801,
      "eits": 2802,
      "ĠgroÃŁe": 2803,
      "ĠBem": 2804,
      "Ġseem": 2805,
      "Ġstep": 2806,
      "Ġans": 2807,
      "Ġrelations": 2808,
      "Ġbringen": 2809,
      "Ġ000": 2810,
      "ĠBeispiel": 2811,
      "Ġregions": 2812,
      "Ġabsol": 2813,
      "sprÃ¤sident": 2814,
      "Ġapplic": 2815,
      "Ġocc": 2816,
      "Ġshort": 2817,
      "duc": 2818,
      "Ġnon": 2819,
      "umen": 2820,
      "bei": 2821,
      "fÃ¤h": 2822,
      "ĠAusdruck": 2823,
      "Ġanother": 2824,
      "Ġoffen": 2825,
      "usion": 2826,
      "Ġrece": 2827,
      "schaften": 2828,
      "Ġinvolved": 2829,
      "Ġersten": 2830,
      "zahl": 2831,
      "Ġverst": 2832,
      "Ġlet": 2833,
      "Ġlead": 2834,
      "Ġintrodu": 2835,
      "Ġauthorities": 2836,
      "Ġgreater": 2837,
      "ances": 2838,
      "ica": 2839,
      "Ġ10": 2840,
      "ged": 2841,
      "Ġwelche": 2842,
      "iders": 2843,
      "Ġjob": 2844,
      "Ġty": 2845,
      "org": 2846,
      "Ġbezug": 2847,
      "Ġverl": 2848,
      "ĠForm": 2849,
      "Ġvi": 2850,
      "ĠStruktur": 2851,
      "ĠUmsetzung": 2852,
      "Ġmot": 2853,
      "usiness": 2854,
      "Ġallgemein": 2855,
      "esellschaft": 2856,
      "iod": 2857,
      "ĠZahl": 2858,
      "ĠRegel": 2859,
      "Ġpolitische": 2860,
      "aps": 2861,
      "Ġintend": 2862,
      "enzen": 2863,
      "inistr": 2864,
      "Ġincrease": 2865,
      "Ġinterests": 2866,
      "Ġdeutlich": 2867,
      "ining": 2868,
      "ufen": 2869,
      "spr": 2870,
      "Ġbecome": 2871,
      "Ġentsprechen": 2872,
      "Ġtogether": 2873,
      "igr": 2874,
      "idence": 2875,
      "ĠGesundheit": 2876,
      "ĠEntschlieÃŁung": 2877,
      "ĠPat": 2878,
      "ĠLebens": 2879,
      "prÃ¼": 2880,
      "ĠStandpunkt": 2881,
      "Ġkind": 2882,
      "Ġtechnolog": 2883,
      "Ġgerade": 2884,
      "Ġhinaus": 2885,
      "text": 2886,
      "Ġenlar": 2887,
      "ont": 2888,
      "ĠNe": 2889,
      "ĠJahres": 2890,
      "Ġhandelt": 2891,
      "ness": 2892,
      "Ġnichts": 2893,
      "ĠErweit": 2894,
      "llig": 2895,
      "ĠIhr": 2896,
      "ĠDurch": 2897,
      "ling": 2898,
      "Ġalways": 2899,
      "Ġwaren": 2900,
      "Ġachieve": 2901,
      "Ġagricult": 2902,
      "Ġgrow": 2903,
      "Ġnor": 2904,
      "Ġsuccess": 2905,
      "Ġble": 2906,
      "Ġterr": 2907,
      "ikan": 2908,
      "ĠGegen": 2909,
      "Ã©": 2910,
      "Ġkurz": 2911,
      "aum": 2912,
      "esen": 2913,
      "Ġinner": 2914,
      "ĠFol": 2915,
      "ĠLÃ¶sung": 2916,
      "Ġbeispiel": 2917,
      "ĠBevÃ¶lk": 2918,
      "ĠIhre": 2919,
      "Ġopportunity": 2920,
      "Ġihnen": 2921,
      "Ġincluding": 2922,
      "Ġstruct": 2923,
      "ĠTagesordnung": 2924,
      "irm": 2925,
      "Ġconcerns": 2926,
      "Ġnotwendig": 2927,
      "ĠVerantwortung": 2928,
      "zogen": 2929,
      "zuf": 2930,
      "These": 2931,
      "Ġak": 2932,
      "schein": 2933,
      "ĠVerwalt": 2934,
      "gar": 2935,
      "Ġaspect": 2936,
      "Ġled": 2937,
      "mitt": 2938,
      "truct": 2939,
      "oting": 2940,
      "esse": 2941,
      "Ġben": 2942,
      "Ġfreedom": 2943,
      "ĠRegionen": 2944,
      "Ġtranspar": 2945,
      "erdem": 2946,
      "Ġavail": 2947,
      "Ġfl": 2948,
      "ĠArticle": 2949,
      "Ġaware": 2950,
      "kes": 2951,
      "utet": 2952,
      "Ġkommt": 2953,
      "Ġ11": 2954,
      "ry": 2955,
      "Ġremain": 2956,
      "ven": 2957,
      "imes": 2958,
      "Ġglobal": 2959,
      "Ġwerde": 2960,
      "Ġdemand": 2961,
      "Ġsei": 2962,
      "ĠWeg": 2963,
      "hÃ¶": 2964,
      "ĠhÃ¶": 2965,
      "icial": 2966,
      "Ġkle": 2967,
      "verfahren": 2968,
      "ĠVerhand": 2969,
      "Ġrefer": 2970,
      "Ġdet": 2971,
      "Ġdort": 2972,
      "Ġtaking": 2973,
      "use": 2974,
      "Ġbased": 2975,
      "Ġfight": 2976,
      "ily": 2977,
      "Ġloc": 2978,
      "ĠEnerg": 2979,
      "Ġbusiness": 2980,
      "Ġperiod": 2981,
      "Ġcertainly": 2982,
      "Ġhalte": 2983,
      "ants": 2984,
      "ĠAustr": 2985,
      "ĠChar": 2986,
      "ĠAuÃŁ": 2987,
      "ĠFrieden": 2988,
      "Ġattention": 2989,
      "ĠGebiet": 2990,
      "Ġopp": 2991,
      "bereich": 2992,
      "ĠÃ¼br": 2993,
      "ĠME": 2994,
      "ĠVerfahren": 2995,
      "Ġadopt": 2996,
      "Ġmonth": 2997,
      "thing": 2998,
      "Ġsolche": 2999,
      "Ġprevent": 3000,
      "frage": 3001,
      "Ġbl": 3002,
      "Ġlea": 3003,
      "ify": 3004,
      "pekt": 3005,
      "Ġinternal": 3006,
      "Ġmajor": 3007,
      "ĠAffairs": 3008,
      "ĠGrÃ¼n": 3009,
      "Dar": 3010,
      "Ġgilt": 3011,
      "allen": 3012,
      "ĠPrÃ¤sidentschaft": 3013,
      "zeitig": 3014,
      "ented": 3015,
      "ders": 3016,
      "ĠWort": 3017,
      "They": 3018,
      "Ġdoc": 3019,
      "ĠÃ¤uÃŁerst": 3020,
      "Ġbeispielsweise": 3021,
      "ĠFischere": 3022,
      "Ġgenau": 3023,
      "reifen": 3024,
      "Ġindividual": 3025,
      "Se": 3026,
      "ication": 3027,
      "Ġcurrent": 3028,
      "Ab": 3029,
      "Ġinstitution": 3030,
      "Ġmanagement": 3031,
      "heb": 3032,
      "hnt": 3033,
      "Ġcompanies": 3034,
      "unkte": 3035,
      "ĠSitz": 3036,
      "rench": 3037,
      "chan": 3038,
      "ĠRights": 3039,
      "andid": 3040,
      "ĠRegierungs": 3041,
      "ko": 3042,
      "lÃ¼ck": 3043,
      "grat": 3044,
      "alitÃ¤t": 3045,
      "ĠUS": 3046,
      "ĠErklÃ¤r": 3047,
      "pen": 3048,
      "Ġbu": 3049,
      "zen": 3050,
      "ĠErachten": 3051,
      "ĠProje": 3052,
      "Ġeconomy": 3053,
      "Ġdocument": 3054,
      "ĠRÃ¼ck": 3055,
      "Ġerhalten": 3056,
      "Ġliberal": 3057,
      "Ġupon": 3058,
      "ĠErachtens": 3059,
      "Ġdessen": 3060,
      "Ġdemokrat": 3061,
      "asing": 3062,
      "Ġ.": 3063,
      "iellen": 3064,
      "ĠEC": 3065,
      "racy": 3066,
      "erseits": 3067,
      "zeÃŁ": 3068,
      "Ġadministr": 3069,
      "isher": 3070,
      "gegen": 3071,
      "ĠEx": 3072,
      "Ġstatement": 3073,
      "ĠHinblick": 3074,
      "pfe": 3075,
      "Ġgemeinsamen": 3076,
      "gratul": 3077,
      "ĠFrench": 3078,
      "hÃ¶rden": 3079,
      "bour": 3080,
      "ĠSeit": 3081,
      "ffentlich": 3082,
      "ktions": 3083,
      "ĠauÃŁer": 3084,
      "zÃ¼glich": 3085,
      "ĠInstitutionen": 3086,
      "Ġrequest": 3087,
      "Ġebenfalls": 3088,
      "ller": 3089,
      "utzen": 3090,
      "sterreich": 3091,
      "Auf": 3092,
      "eless": 3093,
      "ĠReform": 3094,
      "per": 3095,
      "ĠBinnen": 3096,
      "Ġalles": 3097,
      "erecht": 3098,
      "Ġtrade": 3099,
      "Auch": 3100,
      "Ġdanken": 3101,
      "Ġeduc": 3102,
      "Ġimplementation": 3103,
      "Ġfran": 3104,
      "ĠFÃ¤": 3105,
      "Ġinnerhalb": 3106,
      "letz": 3107,
      "Ġoften": 3108,
      "Ġeinzelnen": 3109,
      "Ġcongratul": 3110,
      "weg": 3111,
      "Ġproducts": 3112,
      "Ġyet": 3113,
      "Ġsubst": 3114,
      "Aus": 3115,
      "Man": 3116,
      "Ġcreat": 3117,
      "ĠGesetz": 3118,
      "Ġfarm": 3119,
      "leist": 3120,
      "ationen": 3121,
      "ĠBel": 3122,
      "At": 3123,
      "rÃ¼ck": 3124,
      "ĠMehr": 3125,
      "Eine": 3126,
      "Ġakzept": 3127,
      "rechts": 3128,
      "Ġinstrument": 3129,
      "Ġbeim": 3130,
      "immungen": 3131,
      "hlen": 3132,
      "Ġmajority": 3133,
      "utes": 3134,
      "Ġreach": 3135,
      "Ġvorliegen": 3136,
      "Ġwohl": 3137,
      "Ġrecogn": 3138,
      "gang": 3139,
      "unter": 3140,
      "Ġfield": 3141,
      "ĠGeld": 3142,
      "Ġschaffen": 3143,
      "ification": 3144,
      "Ġwater": 3145,
      "Ġfamil": 3146,
      "net": 3147,
      "Ġtreat": 3148,
      "Ġmind": 3149,
      "Ġgegeben": 3150,
      "earch": 3151,
      "mals": 3152,
      "Ġwords": 3153,
      "ĠermÃ¶": 3154,
      "Ġresearch": 3155,
      "ĠStellung": 3156,
      "Ġdraft": 3157,
      "Ġcomplete": 3158,
      "ĠErweiterung": 3159,
      "lev": 3160,
      "Ġbegin": 3161,
      "ĠGovernment": 3162,
      "Ġdarum": 3163,
      "ĠGemeinschafts": 3164,
      "nehmer": 3165,
      "Ġavailable": 3166,
      "Ġpass": 3167,
      "Ġhappen": 3168,
      "Fin": 3169,
      "ined": 3170,
      "ceed": 3171,
      "ĠHo": 3172,
      "Ġerreichen": 3173,
      "Ġvorgesehen": 3174,
      "Ġenlargement": 3175,
      "Ġenerg": 3176,
      "Ġchildren": 3177,
      "ĠFrei": 3178,
      "Ġmean": 3179,
      "ĠBei": 3180,
      "Ġquestions": 3181,
      "urf": 3182,
      "spolitik": 3183,
      "ĠheiÃŁ": 3184,
      "mÃ¤ÃŁ": 3185,
      "oten": 3186,
      "ĠnÃ¤ch": 3187,
      "Ġerg": 3188,
      "schriften": 3189,
      "Ġmembers": 3190,
      "ĠForsch": 3191,
      "Ġgroups": 3192,
      "Ġant": 3193,
      "asser": 3194,
      "Ġgemacht": 3195,
      "ĠMillionen": 3196,
      "ĠInitiative": 3197,
      "setzen": 3198,
      "Ġviol": 3199,
      "row": 3200,
      "ultur": 3201,
      "Ġtraff": 3202,
      "benso": 3203,
      "haps": 3204,
      "gelung": 3205,
      "ingle": 3206,
      "Ġhaving": 3207,
      "Ġsimply": 3208,
      "co": 3209,
      "Ġquality": 3210,
      "Ġobl": 3211,
      "altung": 3212,
      "Ġlack": 3213,
      "ĠVertre": 3214,
      "ĠGrundlage": 3215,
      "ĠBar": 3216,
      "Ġenc": 3217,
      "Ġfood": 3218,
      "Ġverschiedenen": 3219,
      "zÃ¶s": 3220,
      "Ġzahl": 3221,
      "Ġeindeut": 3222,
      "ĠSystem": 3223,
      "abhÃ¤ng": 3224,
      "Ġfollowing": 3225,
      "Ġfinden": 3226,
      "Ġdecisions": 3227,
      "Ġaddress": 3228,
      "And": 3229,
      "wach": 3230,
      "Ġtas": 3231,
      "ommend": 3232,
      "ĠWahl": 3233,
      "Ġhig": 3234,
      "ÂŃ": 3235,
      "erb": 3236,
      "Ġmod": 3237,
      "teid": 3238,
      "ĠLuft": 3239,
      "Ġ14": 3240,
      "Ġwichtige": 3241,
      "Ġbenefit": 3242,
      "ĠKinder": 3243,
      "Ġpop": 3244,
      "ĠRep": 3245,
      "gern": 3246,
      "Ġeuro": 3247,
      "ĠIs": 3248,
      "ĠschlieÃŁ": 3249,
      "konferenz": 3250,
      "Ġobjectives": 3251,
      "First": 3252,
      "ĠweiÃŁ": 3253,
      "Ġern": 3254,
      "Ġnehmen": 3255,
      "lÃ¤ndern": 3256,
      "ielt": 3257,
      "Ġgar": 3258,
      "Ġdef": 3259,
      "ĠNot": 3260,
      "ĠEnde": 3261,
      "Ġresponsible": 3262,
      "ziehungen": 3263,
      "Ġtable": 3264,
      "igin": 3265,
      "ĠZug": 3266,
      "Ġhatte": 3267,
      "Ġweniger": 3268,
      "Ġdemocratic": 3269,
      "ĠAuÃŁen": 3270,
      "Ġfree": 3271,
      "ĠFÃ¶r": 3272,
      "ĠAuffassung": 3273,
      "Ġamendment": 3274,
      "ĠKosten": 3275,
      "ĠEntscheidung": 3276,
      "agen": 3277,
      "ator": 3278,
      "ĠDienst": 3279,
      "Ġcoordin": 3280,
      "Ġshow": 3281,
      "Ġweitere": 3282,
      "wirkungen": 3283,
      "Ġbo": 3284,
      "Ġple": 3285,
      "ĠMar": 3286,
      "gesetzt": 3287,
      "Ġspecial": 3288,
      "affung": 3289,
      "isches": 3290,
      "ĠgegenwÃ¤rt": 3291,
      "Ġvielleicht": 3292,
      "Ġcreate": 3293,
      "Ġung": 3294,
      "Ġversuch": 3295,
      "ĠAnwendung": 3296,
      "Ġschne": 3297,
      "Ġhinsichtlich": 3298,
      "com": 3299,
      "oung": 3300,
      "Ġsingle": 3301,
      "Ġmentioned": 3302,
      "Ġsupp": 3303,
      "ĠDiskuss": 3304,
      "reicht": 3305,
      "eder": 3306,
      "Ġerforderlich": 3307,
      "ross": 3308,
      "Ġcases": 3309,
      "Ġexc": 3310,
      "ĠGemeinsam": 3311,
      "ĠVerbess": 3312,
      "over": 3313,
      "alen": 3314,
      "Ġeig": 3315,
      "Ġbeiden": 3316,
      "Ġaff": 3317,
      "Ġregion": 3318,
      "haltung": 3319,
      "Ġeffective": 3320,
      "Ġwirtschaftlichen": 3321,
      "onger": 3322,
      "tellen": 3323,
      "weis": 3324,
      "Ġbesser": 3325,
      "CO": 3326,
      "SE": 3327,
      "Ġapply": 3328,
      "hm": 3329,
      "Ġforce": 3330,
      "fern": 3331,
      "ira": 3332,
      "Ġeinfach": 3333,
      "ĠKl": 3334,
      "Ġalthough": 3335,
      "Ġerste": 3336,
      "ĠTÃ¼r": 3337,
      "ĠHerren": 3338,
      "With": 3339,
      "ĠGeschÃ¤ft": 3340,
      "Ġentwick": 3341,
      "Ġtext": 3342,
      "fordert": 3343,
      "ĠwÃ¼rden": 3344,
      "vorschriften": 3345,
      "Ġbrauchen": 3346,
      "hing": 3347,
      "Ġharmon": 3348,
      "sterd": 3349,
      "Ġjeder": 3350,
      "Ġplay": 3351,
      "Uns": 3352,
      "Ġgemeinsame": 3353,
      "sterdam": 3354,
      "Ġmen": 3355,
      "Ġmoment": 3356,
      "Ġstellt": 3357,
      "Ġmeines": 3358,
      "verstÃ¤ndlich": 3359,
      "ĠBinnenmarkt": 3360,
      "Ġmult": 3361,
      "Ġpress": 3362,
      "ĠNA": 3363,
      "scheiden": 3364,
      "Ġprojects": 3365,
      "ix": 3366,
      "merksam": 3367,
      "leit": 3368,
      "ĠLis": 3369,
      "Ġseinen": 3370,
      "Ġdisp": 3371,
      "Ġkeinen": 3372,
      "Ġrecommend": 3373,
      "Ġfunds": 3374,
      "Ġweiterhin": 3375,
      "ĠInformationen": 3376,
      "ĠSchaffung": 3377,
      "Ġfun": 3378,
      "ĠArbeitsp": 3379,
      "Ġinn": 3380,
      "Ġcivil": 3381,
      "ides": 3382,
      "ĠDank": 3383,
      "Ġhalten": 3384,
      "Ġbehand": 3385,
      "ĠZwe": 3386,
      "Ġsprechen": 3387,
      "Ġinternationalen": 3388,
      "Ġmonitor": 3389,
      "ĠAmsterdam": 3390,
      "Ġhon": 3391,
      "ĠAmer": 3392,
      "cen": 3393,
      "fonds": 3394,
      "less": 3395,
      "Ġann": 3396,
      "annten": 3397,
      "ahn": 3398,
      "ĠBekÃ¤mpfung": 3399,
      "av": 3400,
      "ĠVerpflicht": 3401,
      "ĠRegion": 3402,
      "ule": 3403,
      "Ã¤d": 3404,
      "arta": 3405,
      "ĠDemokratie": 3406,
      "ĠBalk": 3407,
      "Ġdoub": 3408,
      "Ġpost": 3409,
      "atsÃ¤ch": 3410,
      "02": 3411,
      "Ġsug": 3412,
      "Ġeth": 3413,
      "ĠvÃ¶": 3414,
      "ĠMitte": 3415,
      "Ġlife": 3416,
      "ielle": 3417,
      "Ġpower": 3418,
      "Finally": 3419,
      "here": 3420,
      "vest": 3421,
      "Ġcare": 3422,
      "iges": 3423,
      "ipf": 3424,
      "Ġparliament": 3425,
      "ĠProgramm": 3426,
      "ĠInternet": 3427,
      "its": 3428,
      "Ġyoung": 3429,
      "Ã¤ren": 3430,
      "Ġteil": 3431,
      "ÃŁen": 3432,
      "ĠItal": 3433,
      "Ġmatters": 3434,
      "Ġobjective": 3435,
      "ĠfranzÃ¶s": 3436,
      "uc": 3437,
      "enten": 3438,
      "Ġangenommen": 3439,
      "Ġvielen": 3440,
      "ziehen": 3441,
      "ĠWirtschafts": 3442,
      "sto": 3443,
      "Ġorigin": 3444,
      "Ġactually": 3445,
      "Ġassess": 3446,
      "Ġhist": 3447,
      "ĠkÃ¼nft": 3448,
      "einander": 3449,
      "ĠerwÃ¤": 3450,
      "alled": 3451,
      "schlieÃŁend": 3452,
      "Ġsure": 3453,
      "Ġfore": 3454,
      "Ġwaste": 3455,
      "ĠBeitrag": 3456,
      "idar": 3457,
      "bereit": 3458,
      "ĠVors": 3459,
      "Ġservice": 3460,
      "Ġ13": 3461,
      "anger": 3462,
      "atur": 3463,
      "Ġaufgrund": 3464,
      "Ġjoint": 3465,
      "Ġallerdings": 3466,
      "ogra": 3467,
      "Ġguarantee": 3468,
      "orgen": 3469,
      "ĠAuswirkungen": 3470,
      "Ġcontain": 3471,
      "iver": 3472,
      "Ġagenda": 3473,
      "ĠPal": 3474,
      "Ġeigenen": 3475,
      "Ġnegotiations": 3476,
      "Ġvoted": 3477,
      "You": 3478,
      "round": 3479,
      "Ġqual": 3480,
      "Ġproper": 3481,
      "fras": 3482,
      "Ġthings": 3483,
      "Ġvers": 3484,
      "Ġappropriate": 3485,
      "Ġdenke": 3486,
      "ĠGleich": 3487,
      "osed": 3488,
      "ived": 3489,
      "ĠJust": 3490,
      "Ġothers": 3491,
      "ĠInteresse": 3492,
      "Ġdraw": 3493,
      "Ġfully": 3494,
      "leis": 3495,
      "ĠKrit": 3496,
      "Ġihrem": 3497,
      "usÃ¤tz": 3498,
      "ummit": 3499,
      "Ġverbess": 3500,
      "Ġmight": 3501,
      "illeg": 3502,
      "ĠIm": 3503,
      "ĠWor": 3504,
      "ĠWettbewerbs": 3505,
      "Ġsogar": 3506,
      "Hier": 3507,
      "serv": 3508,
      "Ġsur": 3509,
      "Ġwee": 3510,
      "ĠZiele": 3511,
      "Ġrail": 3512,
      "program": 3513,
      "Ġprotect": 3514,
      "stens": 3515,
      "ifiz": 3516,
      "Ġcolleag": 3517,
      "Ġlocal": 3518,
      "Ġerne": 3519,
      "indest": 3520,
      "Ġdisk": 3521,
      "Ġagreements": 3522,
      "fragen": 3523,
      "ĠSport": 3524,
      "ĠQu": 3525,
      "Ġbod": 3526,
      "alle": 3527,
      "Ġpast": 3528,
      "ĠSol": 3529,
      "ĠAbkommen": 3530,
      "wurf": 3531,
      "Ġgehen": 3532,
      "Ġerinn": 3533,
      "uppe": 3534,
      "folgen": 3535,
      "Ġwenig": 3536,
      "ĠstÃ¤rk": 3537,
      "Ã¤nde": 3538,
      "Ġparties": 3539,
      "Ã¼nf": 3540,
      "Ġjeden": 3541,
      "twort": 3542,
      "ĠheiÃŁt": 3543,
      "Ġcontext": 3544,
      "ĠAbgeordnete": 3545,
      "ĠFund": 3546,
      "Ġparticip": 3547,
      "Re": 3548,
      "ĠAntwort": 3549,
      "ĠConference": 3550,
      "fang": 3551,
      "ĠRatsprÃ¤sident": 3552,
      "Ġincreasing": 3553,
      "drÃ¼ck": 3554,
      "ners": 3555,
      "urteil": 3556,
      "elves": 3557,
      "rotz": 3558,
      "Ġmeinen": 3559,
      "ĠhÃ¤tte": 3560,
      "ĠGeschÃ¤fts": 3561,
      "Ġbor": 3562,
      "ĠGesellschaft": 3563,
      "Ġexam": 3564,
      "Ġeng": 3565,
      "Ġstud": 3566,
      "Ã¤tigkeit": 3567,
      "Ġconflic": 3568,
      "ims": 3569,
      "ourt": 3570,
      "ritten": 3571,
      "Ġdemocracy": 3572,
      "Ġthems": 3573,
      "Ġschwer": 3574,
      "Ġassist": 3575,
      "gangenen": 3576,
      "Ġprevious": 3577,
      "ograph": 3578,
      "Ġthemselves": 3579,
      "ove": 3580,
      "Ġdist": 3581,
      "Ġregarding": 3582,
      "ĠOrganisation": 3583,
      "ĠFest": 3584,
      "Ġprinciples": 3585,
      ".)": 3586,
      "ba": 3587,
      "Ġstress": 3588,
      "jen": 3589,
      "ĠtatsÃ¤ch": 3590,
      "ichtet": 3591,
      "Ġcaus": 3592,
      "Ġbeit": 3593,
      "ĠBedingungen": 3594,
      "Ġefforts": 3595,
      "sÃ¤tz": 3596,
      "voll": 3597,
      "ĠPri": 3598,
      "Ġago": 3599,
      "chnolog": 3600,
      "Ġsubsid": 3601,
      "ialogue": 3602,
      "lÃ¤nder": 3603,
      "entliche": 3604,
      "ĠRei": 3605,
      "Ġprep": 3606,
      "ĠConvention": 3607,
      "uppen": 3608,
      "Ġihm": 3609,
      "itÃ¤ts": 3610,
      "ĠÃ¶ffentlichen": 3611,
      "cell": 3612,
      "Ġresul": 3613,
      "zustellen": 3614,
      "weden": 3615,
      "fortun": 3616,
      "ĠAmendment": 3617,
      "ake": 3618,
      "Ġident": 3619,
      "Ġlegislative": 3620,
      "Ġsignific": 3621,
      "Ġsehen": 3622,
      "FÃ¼r": 3623,
      "vious": 3624,
      "Ġfish": 3625,
      "Ġreports": 3626,
      "ĠInteressen": 3627,
      "Daher": 3628,
      "Ġmorgen": 3629,
      "hend": 3630,
      "Ġsport": 3631,
      "ars": 3632,
      "Ġschwier": 3633,
      "fung": 3634,
      "ĠProgramme": 3635,
      "Ġgovernments": 3636,
      "ize": 3637,
      "Ã¶t": 3638,
      "ĠDamen": 3639,
      "baren": 3640,
      "Bei": 3641,
      "Ġday": 3642,
      "ĠBevÃ¶lkerung": 3643,
      "ĠRegierungskonferenz": 3644,
      "zunehmen": 3645,
      "Ġpur": 3646,
      "ĠParty": 3647,
      "lied": 3648,
      "Ġsystems": 3649,
      "ichten": 3650,
      "Ġwhile": 3651,
      "ĠWoch": 3652,
      "ĠVereinigten": 3653,
      "ĠvÃ¶llig": 3654,
      "mor": 3655,
      "Ġilleg": 3656,
      "Ġdue": 3657,
      "Ġbil": 3658,
      "Ġnever": 3659,
      "ĠBerichts": 3660,
      "ĠSocial": 3661,
      "Ġeducation": 3662,
      "Ġcent": 3663,
      "Ġbekannt": 3664,
      "Ġindeed": 3665,
      "bur": 3666,
      "Ġsit": 3667,
      "ĠgehÃ¶rt": 3668,
      "akt": 3669,
      "key": 3670,
      "Ġstrengt": 3671,
      "iken": 3672,
      "ĠGew": 3673,
      "ĠÃľberein": 3674,
      "dition": 3675,
      "Ġwahr": 3676,
      "mehr": 3677,
      "Ġconcerning": 3678,
      "Ġrecent": 3679,
      "To": 3680,
      "ĠPre": 3681,
      "Ġenthalten": 3682,
      "ategie": 3683,
      "finden": 3684,
      "lexib": 3685,
      "ĠWieder": 3686,
      "ĠProdi": 3687,
      "Ġcosts": 3688,
      "Als": 3689,
      "ĠEs": 3690,
      "ĠCourt": 3691,
      "Ġindem": 3692,
      "Ġarbeit": 3693,
      "Ġmonths": 3694,
      "Ġear": 3695,
      "rael": 3696,
      "ĠFr": 3697,
      "ĠGree": 3698,
      "Ġcover": 3699,
      "Ġdoing": 3700,
      "Ġplan": 3701,
      "Ġversch": 3702,
      "ĠProt": 3703,
      "ĠKontrolle": 3704,
      "oper": 3705,
      "Ġamong": 3706,
      "Ġemph": 3707,
      "Ġnie": 3708,
      "Ġenter": 3709,
      "Ġworkers": 3710,
      "ics": 3711,
      "Ġshe": 3712,
      "ĠVoraus": 3713,
      "Ġconsumer": 3714,
      "Ġlonger": 3715,
      "ĠBehÃ¶rden": 3716,
      "Ġunterschied": 3717,
      "Ġevent": 3718,
      "ĠAufgabe": 3719,
      "selves": 3720,
      "ĠKommissarin": 3721,
      "ĠPrior": 3722,
      "Ġvict": 3723,
      "My": 3724,
      "atis": 3725,
      "Ġnet": 3726,
      "Ġstandards": 3727,
      "Ġimprove": 3728,
      "Ġencour": 3729,
      "jenigen": 3730,
      "onen": 3731,
      "Ġitem": 3732,
      "Ġkeep": 3733,
      "Ġanswer": 3734,
      "inen": 3735,
      "ĠKultur": 3736,
      "Ġcomes": 3737,
      "ĠUhr": 3738,
      "Ġ2001": 3739,
      "fs": 3740,
      "government": 3741,
      "hilfe": 3742,
      "ĠPe": 3743,
      "kei": 3744,
      "ĠBeziehungen": 3745,
      "aged": 3746,
      "Ġbisher": 3747,
      "ĠunterstÃ¼tzt": 3748,
      "Ġfound": 3749,
      "ĠVerhandlungen": 3750,
      "He": 3751,
      "Ġdialogue": 3752,
      "roffen": 3753,
      "ott": 3754,
      "ritts": 3755,
      "Ġperhaps": 3756,
      "Ġreasons": 3757,
      "Ġdiscussion": 3758,
      "ĠFÃ¶rderung": 3759,
      "orge": 3760,
      "ingt": 3761,
      "ĠzunÃ¤chst": 3762,
      "enste": 3763,
      "hilfen": 3764,
      "Ġtal": 3765,
      "ĠSicht": 3766,
      "Ġcontra": 3767,
      "legation": 3768,
      "Ġ50": 3769,
      "Ġcurrently": 3770,
      "..": 3771,
      "rete": 3772,
      "ĠVerfÃ¼": 3773,
      "ĠPart": 3774,
      "Ġstrong": 3775,
      "lands": 3776,
      "ĠZugang": 3777,
      "Ġdring": 3778,
      "Ġerreicht": 3779,
      "Ġjud": 3780,
      "Ġpoll": 3781,
      "ĠText": 3782,
      "haft": 3783,
      "Ġactivities": 3784,
      "ination": 3785,
      "orm": 3786,
      "Ġlab": 3787,
      "Ġexperien": 3788,
      "Ġabsolute": 3789,
      "ĠReihe": 3790,
      "lei": 3791,
      "imum": 3792,
      "ĠVertra": 3793,
      "Ġgener": 3794,
      "Ġbzw": 3795,
      "ission": 3796,
      "Ã¼sse": 3797,
      "ĠNotwend": 3798,
      "ĠfÃ¶r": 3799,
      "Ġvis": 3800,
      "Ġconsequ": 3801,
      "griff": 3802,
      "Ġourselves": 3803,
      "ĠChina": 3804,
      "Ġkonn": 3805,
      "ĠMehrheit": 3806,
      "ĠTÃ¼rkei": 3807,
      "governmental": 3808,
      "mut": 3809,
      "Ġtomor": 3810,
      "ĠUr": 3811,
      "ĠInvest": 3812,
      "Ġentscheiden": 3813,
      "Ġchar": 3814,
      "ĠkÃ¶nnten": 3815,
      "Ġoblig": 3816,
      "Ġtomorrow": 3817,
      "bildung": 3818,
      "anke": 3819,
      "Ġerz": 3820,
      "Second": 3821,
      "zess": 3822,
      "Ġsolution": 3823,
      "Ġidea": 3824,
      "ode": 3825,
      "ches": 3826,
      "ativ": 3827,
      "Ġfisher": 3828,
      "Ġebenso": 3829,
      "ĠTats": 3830,
      "Ġposit": 3831,
      "ternal": 3832,
      "deutet": 3833,
      "Ġenough": 3834,
      "ĠEntschlieÃŁungs": 3835,
      "Ġhim": 3836,
      "Ġwichtigen": 3837,
      "ledge": 3838,
      "Ġcommunication": 3839,
      "Ġenergy": 3840,
      "ĠnÃ¤chsten": 3841,
      "Ġopt": 3842,
      "ĠerklÃ¤r": 3843,
      "Ġnothing": 3844,
      "Ġhumanit": 3845,
      "ilung": 3846,
      "Ġ30": 3847,
      "Ġpurp": 3848,
      "Par": 3849,
      "prÃ¤": 3850,
      "anges": 3851,
      "Ġanal": 3852,
      "Ġstrategy": 3853,
      "ĠTurkey": 3854,
      "inge": 3855,
      "ubl": 3856,
      "trÃ¤gen": 3857,
      "Ġcarried": 3858,
      "ĠY": 3859,
      "ĠverfÃ¼": 3860,
      "ĠDialog": 3861,
      "ĠRegierungen": 3862,
      "Ġregulations": 3863,
      "bt": 3864,
      "ateral": 3865,
      "Ġzie": 3866,
      "Ã¼nschen": 3867,
      "Ġgestellt": 3868,
      "Ġcongratulate": 3869,
      "ivers": 3870,
      "enken": 3871,
      "Ã¼d": 3872,
      "erence": 3873,
      "ĠLandwirtschaft": 3874,
      "Ġtechnical": 3875,
      "Ġsoziale": 3876,
      "ĠBerichterstatterin": 3877,
      "ĠgefÃ¤hr": 3878,
      "ums": 3879,
      "arbeiten": 3880,
      "ittle": 3881,
      "Pro": 3882,
      "atory": 3883,
      "ĠNotwendigkeit": 3884,
      "self": 3885,
      "Ġmeeting": 3886,
      "ĠNATO": 3887,
      "Ġpartners": 3888,
      "Ġfinal": 3889,
      "aÃŁt": 3890,
      "Ġprocedures": 3891,
      "ĠVerbesserung": 3892,
      "Ġdiskut": 3893,
      "bon": 3894,
      "Ġbedeut": 3895,
      "ffice": 3896,
      "Ġweiteren": 3897,
      "pfehl": 3898,
      "Ġemphas": 3899,
      "ĠWÃ¤hr": 3900,
      "Ġmaintain": 3901,
      "ER": 3902,
      "Ġiniti": 3903,
      "utzung": 3904,
      "umente": 3905,
      "Ġunt": 3906,
      "omat": 3907,
      "ĠGesch": 3908,
      "Ġsever": 3909,
      "ĠfÃ¼nf": 3910,
      "Ġundert": 3911,
      "iglich": 3912,
      "ĠAt": 3913,
      "Ġstates": 3914,
      "ennung": 3915,
      "ĠSchul": 3916,
      "ency": 3917,
      "ican": 3918,
      "worten": 3919,
      "Ġrelation": 3920,
      "Ġgesamten": 3921,
      "Ġlink": 3922,
      "Ġlittle": 3923,
      "ĠDok": 3924,
      "))": 3925,
      "reiben": 3926,
      "Ġgeschlossen": 3927,
      "ym": 3928,
      "ĠQual": 3929,
      "Ġhonour": 3930,
      "fre": 3931,
      "itten": 3932,
      "Ġeas": 3933,
      "Ġoft": 3934,
      "Ġmakes": 3935,
      "richtung": 3936,
      "Ġernst": 3937,
      "Ġfour": 3938,
      "ĠFamil": 3939,
      "cher": 3940,
      "Ã¼h": 3941,
      "ĠGipf": 3942,
      "Ġconv": 3943,
      "Ġdemon": 3944,
      "Ġshare": 3945,
      "Ġrestr": 3946,
      "Ġchallen": 3947,
      "ĠFlug": 3948,
      "Ġkey": 3949,
      "ausschuÃŁ": 3950,
      "Ġresults": 3951,
      "uese": 3952,
      "Ġbedeutet": 3953,
      "Ġline": 3954,
      "Ġverw": 3955,
      "Ġunserem": 3956,
      "ĠBereichen": 3957,
      "Ġagricultural": 3958,
      "Ġlediglich": 3959,
      "ators": 3960,
      "arf": 3961,
      "ĠSchluÃŁ": 3962,
      "Ġmeinem": 3963,
      "ĠCharta": 3964,
      "ĠPortuguese": 3965,
      "gliche": 3966,
      "Ġgute": 3967,
      "ĠStabil": 3968,
      "weil": 3969,
      "Secondly": 3970,
      "ĠNr": 3971,
      "Ġroad": 3972,
      "Ġseems": 3973,
      "Ġgrowth": 3974,
      "ĠErklÃ¤rung": 3975,
      "ban": 3976,
      "cr": 3977,
      "iffen": 3978,
      "Ã¤hl": 3979,
      "irc": 3980,
      "Ġfair": 3981,
      "staat": 3982,
      "ingen": 3983,
      "Ġgra": 3984,
      "ĠGre": 3985,
      "sehen": 3986,
      "Ġactions": 3987,
      "frist": 3988,
      "ĠMÃ¶glichkeiten": 3989,
      "Ã¼cht": 3990,
      "Ġexcell": 3991,
      "Ġinclude": 3992,
      "ĠÃĸsterreich": 3993,
      "ift": 3994,
      "ĠWer": 3995,
      "Ġ25": 3996,
      "outh": 3997,
      "aper": 3998,
      "Let": 3999,
      "Ġland": 4000,
      "ringen": 4001,
      "Ġwirksam": 4002,
      "ommun": 4003,
      "orth": 4004,
      "Ġexpl": 4005,
      "Ġtrue": 4006,
      "Ġtabled": 4007,
      "Ġexcellent": 4008,
      "wÃ¼r": 4009,
      "ĠCharter": 4010,
      "ĠThis": 4011,
      "atast": 4012,
      "ĠSektor": 4013,
      "ully": 4014,
      "Ġangesichts": 4015,
      "ĠTrans": 4016,
      "atastrop": 4017,
      "Ġbre": 4018,
      "Ġcirc": 4019,
      "Ġorganisations": 4020,
      "riften": 4021,
      "Ġfall": 4022,
      "ĠKomp": 4023,
      "ĠTag": 4024,
      "ĠEng": 4025,
      "line": 4026,
      "Ġguid": 4027,
      "Ġfindet": 4028,
      "Ġfail": 4029,
      "Ġihn": 4030,
      "ĠGerman": 4031,
      "ĠVolks": 4032,
      "ĠBrit": 4033,
      "ĠInform": 4034,
      "Ġprovided": 4035,
      "Ġpriority": 4036,
      "burg": 4037,
      "ĠSan": 4038,
      "Ġforeign": 4039,
      "ood": 4040,
      "Ġdanger": 4041,
      "Ġvier": 4042,
      "Ġvern": 4043,
      "ĠDas": 4044,
      "Ġproduction": 4045,
      "gent": 4046,
      "hens": 4047,
      "ĠKonfl": 4048,
      "yp": 4049,
      "Ġmer": 4050,
      "Ġgee": 4051,
      "cco": 4052,
      "ĠOpf": 4053,
      "Ġrad": 4054,
      "Ġcrime": 4055,
      "ĠAngelegenheit": 4056,
      "ĠVerfÃ¼gung": 4057,
      "fully": 4058,
      "ij": 4059,
      "ĠRis": 4060,
      "Ġerwar": 4061,
      "Ġentire": 4062,
      "Ġrichtig": 4063,
      "Ġimmigr": 4064,
      "fortunately": 4065,
      "ither": 4066,
      "cken": 4067,
      "ĠSchritt": 4068,
      "Ġconsumers": 4069,
      "Ġaspects": 4070,
      "atisf": 4071,
      "Doch": 4072,
      "ĠVorschriften": 4073,
      "ĠAspe": 4074,
      "ĠPrinzip": 4075,
      "ians": 4076,
      "Ġexpect": 4077,
      "uclear": 4078,
      "inne": 4079,
      "Ġsett": 4080,
      "ĠNor": 4081,
      "Ġobvious": 4082,
      "ethod": 4083,
      "ĠFeira": 4084,
      "ĠPersonen": 4085,
      "Ġmilitary": 4086,
      "Ġpot": 4087,
      "ications": 4088,
      "ĠGefahr": 4089,
      "Ġtraining": 4090,
      "ĠStaats": 4091,
      "Ġgleichzeitig": 4092,
      "Ġcontinu": 4093,
      "maÃŁnahmen": 4094,
      "ckt": 4095,
      "ustain": 4096,
      "ortugies": 4097,
      "Ġfarmers": 4098,
      "hnen": 4099,
      "zentr": 4100,
      "ins": 4101,
      "Ġportugies": 4102,
      "ĠCo": 4103,
      "Ġextend": 4104,
      "stell": 4105,
      "Ġrest": 4106,
      "Ġsag": 4107,
      "Dieser": 4108,
      "Ġdiscrimin": 4109,
      "Ġgelten": 4110,
      "Ġcommitment": 4111,
      "aut": 4112,
      "Ġmar": 4113,
      "imme": 4114,
      "amit": 4115,
      "Ġvertreten": 4116,
      "rang": 4117,
      "Ġamb": 4118,
      "Ġofficial": 4119,
      "ĠÃ¼brigen": 4120,
      "Sch": 4121,
      "ĠLeit": 4122,
      "ĠAntrag": 4123,
      "Ġterm": 4124,
      "Ġfolgen": 4125,
      "Ġsignificant": 4126,
      "iew": 4127,
      "Ġumfassen": 4128,
      "Ġschnell": 4129,
      "ai": 4130,
      "alten": 4131,
      "ĠfÃ¼hr": 4132,
      "legenheiten": 4133,
      "Ġsubmit": 4134,
      "ĠLeben": 4135,
      "Ġstrengthen": 4136,
      "Zweit": 4137,
      "most": 4138,
      "ĠIt": 4139,
      "schaftlichen": 4140,
      "Ġgenommen": 4141,
      "ĠWirk": 4142,
      "Ġbasic": 4143,
      "Ġexcl": 4144,
      "ĠGemeinsamen": 4145,
      "ampf": 4146,
      "Ġstage": 4147,
      "heben": 4148,
      "Ġagreed": 4149,
      "Ġbestimmte": 4150,
      "Ber": 4151,
      "ĠPosition": 4152,
      "ctive": 4153,
      "ĠerfÃ¼": 4154,
      "ĠWasser": 4155,
      "Ġseinem": 4156,
      "Ġdeveloping": 4157,
      "Ġbel": 4158,
      "ĠKr": 4159,
      "aking": 4160,
      "Ġwobei": 4161,
      "gebracht": 4162,
      "ĠRichtung": 4163,
      "ĠVerteid": 4164,
      "Ã¼ssel": 4165,
      "kommens": 4166,
      "ĠEnergie": 4167,
      "Ġeindeutig": 4168,
      "Ġuntil": 4169,
      "folgt": 4170,
      "riminal": 4171,
      "ĠEmpfehl": 4172,
      "enntnis": 4173,
      "leistet": 4174,
      "Ġseveral": 4175,
      "part": 4176,
      "alu": 4177,
      "verb": 4178,
      "Ġpopulation": 4179,
      "Ġeigentlich": 4180,
      "fert": 4181,
      "ons": 4182,
      "Ġret": 4183,
      "stellt": 4184,
      "zulegen": 4185,
      "Ġprovisions": 4186,
      "fÃ¤lle": 4187,
      "ĠMitteilung": 4188,
      "Ġinst": 4189,
      "Ġvoting": 4190,
      "ulture": 4191,
      "iÃŁb": 4192,
      "az": 4193,
      "Ġangem": 4194,
      "Ġerheb": 4195,
      "Ġsense": 4196,
      "ĠBeschÃ¤ftigung": 4197,
      "ĠUSA": 4198,
      "ĠInformations": 4199,
      "Ã¼rz": 4200,
      "Ġheraus": 4201,
      "03": 4202,
      "Ġlange": 4203,
      "fence": 4204,
      "ĠKoordin": 4205,
      "mitteln": 4206,
      "schritte": 4207,
      "lÃ¼ckw": 4208,
      "hes": 4209,
      "pite": 4210,
      "iterr": 4211,
      "Ġheld": 4212,
      "ĠSicherheits": 4213,
      "side": 4214,
      "Ġseen": 4215,
      "que": 4216,
      "Ġexpressed": 4217,
      "Ġclar": 4218,
      "fft": 4219,
      "Ġpresented": 4220,
      "Ġaccording": 4221,
      "ĠberÃ¼cksichtigt": 4222,
      "Ġeither": 4223,
      "Ġeingehen": 4224,
      "ĠRaum": 4225,
      "Ġfordern": 4226,
      "ĠGelegenheit": 4227,
      "arbeitung": 4228,
      "ikt": 4229,
      "last": 4230,
      "pid": 4231,
      "Ġhold": 4232,
      "Ġtotal": 4233,
      "ĠDritt": 4234,
      "Ġquick": 4235,
      "Ġraised": 4236,
      "Ġoffer": 4237,
      "ĠAsyl": 4238,
      "iterran": 4239,
      "istischen": 4240,
      "lÃ¤tz": 4241,
      "Ġsolchen": 4242,
      "Ġgrund": 4243,
      "ĠZeitpunkt": 4244,
      "ĠAfrica": 4245,
      "ĠunabhÃ¤ng": 4246,
      "Ġderart": 4247,
      "lling": 4248,
      "lt": 4249,
      "tent": 4250,
      "ĠbefÃ¼r": 4251,
      "Ġverhin": 4252,
      "Ġunseres": 4253,
      "ĠIndustrie": 4254,
      "ĠPartei": 4255,
      "Ġprepared": 4256,
      "wand": 4257,
      "Ġfr": 4258,
      "Thank": 4259,
      "Ġconstru": 4260,
      "peten": 4261,
      "Ġvorgelegt": 4262,
      "Ġemploy": 4263,
      "Ġestablished": 4264,
      "Ġwesentlich": 4265,
      "Ġcontribution": 4266,
      "Ġthing": 4267,
      "ested": 4268,
      "under": 4269,
      "ĠgefÃ¼hrt": 4270,
      "Ġsoon": 4271,
      "Ã¤nger": 4272,
      "Ġcomprom": 4273,
      "ysteme": 4274,
      "ĠRechtsvorschriften": 4275,
      "ĠVereinbar": 4276,
      "Ġbuild": 4277,
      "Zweitens": 4278,
      "ieten": 4279,
      "Ġmethod": 4280,
      "ĠMin": 4281,
      "Ġ1997": 4282,
      "Ġpractice": 4283,
      "fÃ¤higkeit": 4284,
      "Ġhighl": 4285,
      "bod": 4286,
      "more": 4287,
      "organisation": 4288,
      "ĠzusÃ¤tz": 4289,
      "ĠPunkte": 4290,
      "Ġrepe": 4291,
      "Ġneeded": 4292,
      "ĠLeg": 4293,
      "ĠDemoc": 4294,
      "ĠTatsache": 4295,
      "Ġbitte": 4296,
      "Ġfacil": 4297,
      "best": 4298,
      "ata": 4299,
      "ĠIra": 4300,
      "Ġwhose": 4301,
      "ĠÃĦnderung": 4302,
      "app": 4303,
      "lassen": 4304,
      "ĠErzeug": 4305,
      "Ġnature": 4306,
      "Ġachieved": 4307,
      "Ġgrundlegen": 4308,
      "ĠSub": 4309,
      "ocol": 4310,
      "obil": 4311,
      "Ġtype": 4312,
      "ĠDiskussion": 4313,
      "gument": 4314,
      "Ġturn": 4315,
      "Ġbeteil": 4316,
      "gency": 4317,
      "lemented": 4318,
      "Ġdelay": 4319,
      "AuÃŁ": 4320,
      "ests": 4321,
      "Ġleider": 4322,
      "Ġetwa": 4323,
      "wertung": 4324,
      "ĠFortschritte": 4325,
      "Ġanalys": 4326,
      "Ġfoc": 4327,
      "ĠfrÃ¼": 4328,
      "Ġprofit": 4329,
      "indung": 4330,
      "sparenz": 4331,
      "Ġrequired": 4332,
      "Ġconne": 4333,
      "Ġbetreffen": 4334,
      "Ġchanges": 4335,
      "Ġdurchge": 4336,
      "Ġhinweisen": 4337,
      "ĠThemen": 4338,
      "ĠEntscheidungen": 4339,
      "AbschlieÃŁend": 4340,
      "ester": 4341,
      "itim": 4342,
      "aterial": 4343,
      "verkehrs": 4344,
      "Zum": 4345,
      "Ġsustain": 4346,
      "ĠMitglieder": 4347,
      "forderungen": 4348,
      "pendent": 4349,
      "ĠArbeitsplÃ¤tz": 4350,
      "ĠWTO": 4351,
      "ĠEinw": 4352,
      "ĠGrÃ¼nden": 4353,
      "ĠIsrael": 4354,
      "ichen": 4355,
      "entions": 4356,
      "ĠBas": 4357,
      "ĠZus": 4358,
      "prinzip": 4359,
      "Ġliegen": 4360,
      "ylum": 4361,
      "Ġve": 4362,
      "ĠSerb": 4363,
      "Ġstar": 4364,
      "reiche": 4365,
      "Ġasked": 4366,
      "ĠSeite": 4367,
      "iterranean": 4368,
      "gu": 4369,
      "yn": 4370,
      "ences": 4371,
      "geleg": 4372,
      "ĠAbsch": 4373,
      "ĠGroÃŁ": 4374,
      "ennen": 4375,
      "Ġpa": 4376,
      "imension": 4377,
      "Ġlow": 4378,
      "Ġeveryone": 4379,
      "Ġelect": 4380,
      "Ġvalues": 4381,
      "ĠPatten": 4382,
      "Ġsuggest": 4383,
      "Parliament": 4384,
      "Ġmacht": 4385,
      "Ġstark": 4386,
      "stead": 4387,
      "Ġdecided": 4388,
      "Ġprakt": 4389,
      "ffentlichkeit": 4390,
      "Ġbeh": 4391,
      "ĠAut": 4392,
      "ĠAgr": 4393,
      "elines": 4394,
      "Ġschein": 4395,
      "Ġbetroffen": 4396,
      "rieg": 4397,
      "Ġmarkets": 4398,
      "ĠFlÃ¼cht": 4399,
      "ĠbegrÃ¼ÃŁen": 4400,
      "bare": 4401,
      "Ġfast": 4402,
      "Ġnam": 4403,
      "ĠJan": 4404,
      "arbeitet": 4405,
      "Ġmovement": 4406,
      "kontro": 4407,
      "Ġmotion": 4408,
      "ĠAustria": 4409,
      "imal": 4410,
      "ĠBank": 4411,
      "ĠLin": 4412,
      "okoll": 4413,
      "Ġimpact": 4414,
      "Ġcritic": 4415,
      "Ġassistance": 4416,
      "Ġvictims": 4417,
      "Ġrelev": 4418,
      "Ġasylum": 4419,
      "ĠeuropÃ¤ischer": 4420,
      "haupt": 4421,
      "Ġapplication": 4422,
      "St": 4423,
      "Ġcru": 4424,
      "Ġabove": 4425,
      "spro": 4426,
      "ĠÃĸffentlichkeit": 4427,
      "ĠTransparenz": 4428,
      "ĠVorsitz": 4429,
      "bahn": 4430,
      "Ġzweite": 4431,
      "ĠDirect": 4432,
      "Our": 4433,
      "Ġakt": 4434,
      "Ġcandid": 4435,
      "abon": 4436,
      "issabon": 4437,
      "ession": 4438,
      "ĠKommissions": 4439,
      "Ġprivate": 4440,
      "ĠSitzung": 4441,
      "Ġhistor": 4442,
      "):": 4443,
      "Ġban": 4444,
      "iding": 4445,
      "ĠIntegr": 4446,
      "Ġrac": 4447,
      "Ġassoc": 4448,
      "Ġexisting": 4449,
      "ĠzustÃ¤nd": 4450,
      "ifel": 4451,
      "Ġmove": 4452,
      "Ġethn": 4453,
      "Vor": 4454,
      "legung": 4455,
      "Ġrefuge": 4456,
      "Ġbroad": 4457,
      "Ġjobs": 4458,
      "wes": 4459,
      "Ġsaying": 4460,
      "cies": 4461,
      "Ġdisch": 4462,
      "ald": 4463,
      "ĠPra": 4464,
      "ĠDaten": 4465,
      "inki": 4466,
      "elsinki": 4467,
      "Ġsatisf": 4468,
      "Ġbeha": 4469,
      "ĠLissabon": 4470,
      "Ġpoor": 4471,
      "ĠPlen": 4472,
      "gewiesen": 4473,
      "Damit": 4474,
      "gungen": 4475,
      "polit": 4476,
      "Ġ,": 4477,
      "Ġexternal": 4478,
      "Ġunterb": 4479,
      "auer": 4480,
      "ĠAngelegenheiten": 4481,
      "Ġbalance": 4482,
      "Ġcultural": 4483,
      "Ġhoch": 4484,
      "Ġunver": 4485,
      "asch": 4486,
      "edi": 4487,
      "ĠSinne": 4488,
      "ĠKap": 4489,
      "Ġhatten": 4490,
      "Ġhead": 4491,
      "Ġnote": 4492,
      "schlieÃŁlich": 4493,
      "Ġremind": 4494,
      "ĠRede": 4495,
      "ĠBemerk": 4496,
      "Ġtransparency": 4497,
      "ĠVertreter": 4498,
      "ĠLisbon": 4499,
      "AuÃŁerdem": 4500,
      "Ġsetzen": 4501,
      "ĠSache": 4502,
      "Ġcomb": 4503,
      "Ġche": 4504,
      "ĠArbeitnehmer": 4505,
      "Ġfunding": 4506,
      "Ġgetan": 4507,
      "Ġcriter": 4508,
      "Ġcla": 4509,
      "Ġstimmen": 4510,
      "vorsch": 4511,
      "Ġspecif": 4512,
      "Ġpromote": 4513,
      "ĠErgebnisse": 4514,
      "Ġtask": 4515,
      "by": 4516,
      "Ġph": 4517,
      "Ġverein": 4518,
      "ĠHelsinki": 4519,
      "ĠFolgen": 4520,
      "Ġcoordination": 4521,
      "ĠtatsÃ¤chlich": 4522,
      "minister": 4523,
      "nissen": 4524,
      "ĠPfl": 4525,
      "ĠMal": 4526,
      "ĠInstrument": 4527,
      "Ġkeiner": 4528,
      "folge": 4529,
      "Ġthroughout": 4530,
      "Ġsufficient": 4531,
      "angt": 4532,
      "Ġcause": 4533,
      "ufig": 4534,
      "ĠErfahr": 4535,
      "ĠGeneral": 4536,
      "Ġbleiben": 4537,
      "Zu": 4538,
      "ĠKons": 4539,
      "ĠMED": 4540,
      "mden": 4541,
      "isis": 4542,
      "Ġbeant": 4543,
      "ĠEisen": 4544,
      "ĠWach": 4545,
      "wegen": 4546,
      "zeichne": 4547,
      "Ġwegen": 4548,
      "oss": 4549,
      "ĠRegelung": 4550,
      "itionen": 4551,
      "Ġpresidency": 4552,
      "ĠSteuer": 4553,
      "Ġlevels": 4554,
      "Ġapproved": 4555,
      "Ġgestimmt": 4556,
      "Ġdata": 4557,
      "arian": 4558,
      "olution": 4559,
      "ĠSchwier": 4560,
      "ĠgroÃŁer": 4561,
      "Ġguidelines": 4562,
      "Ġfocus": 4563,
      "ĠJanu": 4564,
      "so": 4565,
      "Ã¶ff": 4566,
      "Ġprof": 4567,
      "stelle": 4568,
      "ĠEinfÃ¼hrung": 4569,
      "Ġimplemented": 4570,
      "ĠRichtlinien": 4571,
      "ĠErgebnis": 4572,
      "nommen": 4573,
      "sicherheit": 4574,
      "Ġfive": 4575,
      "gerungen": 4576,
      "geschlossen": 4577,
      "ĠHeraus": 4578,
      "ziehung": 4579,
      "Denn": 4580,
      "liches": 4581,
      "hrte": 4582,
      "ĠErfolg": 4583,
      "Ã¤rm": 4584,
      "ĠBeitritts": 4585,
      "Ġclosed": 4586,
      "ĠFischerei": 4587,
      "legt": 4588,
      "igte": 4589,
      "ĠKom": 4590,
      "ĠKampf": 4591,
      "griffen": 4592,
      "Ġsafe": 4593,
      "Ġtragen": 4594,
      "spruch": 4595,
      "ĠermÃ¶glichen": 4596,
      "Um": 4597,
      "Ġnuclear": 4598,
      "ĠAktions": 4599,
      "Ġconst": 4600,
      "ĠTat": 4601,
      "Ġextent": 4602,
      "Ġattem": 4603,
      "gesellschaft": 4604,
      "Ġincluded": 4605,
      "ĠVerkehrs": 4606,
      "EC": 4607,
      "Ġsan": 4608,
      "Ġfort": 4609,
      "ĠAnt": 4610,
      "nehm": 4611,
      "ĠDurchfÃ¼hrung": 4612,
      "isely": 4613,
      "Ġsl": 4614,
      "ĠAss": 4615,
      "Ġko": 4616,
      "iers": 4617,
      "ĠGrundrechte": 4618,
      "geln": 4619,
      "ĠSpan": 4620,
      "Ġrequirements": 4621,
      "ĠBestimmungen": 4622,
      "Ġarbeiten": 4623,
      "One": 4624,
      "ires": 4625,
      "ĠIr": 4626,
      "ĠVÃ¶lk": 4627,
      "Ġcrisis": 4628,
      "Ġdoubt": 4629,
      "drÃ¼cklich": 4630,
      "Ġdiscrimination": 4631,
      "son": 4632,
      "ĠAll": 4633,
      "Ġerster": 4634,
      "Ġcontent": 4635,
      "ĠverstÃ¤r": 4636,
      "unities": 4637,
      "ĠPol": 4638,
      "cep": 4639,
      "Ġaufgenommen": 4640,
      "Ġdeterm": 4641,
      "pre": 4642,
      "Ġcriminal": 4643,
      "Ã¼lt": 4644,
      "Ġvergangenen": 4645,
      "Ġ18": 4646,
      "Ġresponse": 4647,
      "Ġgebracht": 4648,
      "Ġfolgt": 4649,
      "ĠLiberalisierung": 4650,
      "ĠStrategie": 4651,
      "Ġcompletely": 4652,
      "Ġconflict": 4653,
      "go": 4654,
      "ĠlÃ¤nd": 4655,
      "Ġverg": 4656,
      "Ġstop": 4657,
      "Ġobwohl": 4658,
      "rief": 4659,
      "Ġscient": 4660,
      "ĠVertrags": 4661,
      "Ġlimit": 4662,
      "ĠberÃ¼cksichtigen": 4663,
      "ĠDokument": 4664,
      "ĠAgrar": 4665,
      "bel": 4666,
      "stre": 4667,
      "ĠKenntnis": 4668,
      "ienen": 4669,
      "Ġcorrect": 4670,
      "bourg": 4671,
      "Ġaffect": 4672,
      "ĠDer": 4673,
      "Ġ21": 4674,
      "ĠBÃ¼rgern": 4675,
      "ĠStellungnahme": 4676,
      "Ġinitiatives": 4677,
      "ĠOpfer": 4678,
      "Ġsagte": 4679,
      "Ġangesprochen": 4680,
      "ĠbeschÃ¤ft": 4681,
      "uten": 4682,
      "Ġrecon": 4683,
      "ĠRes": 4684,
      "Ġleisten": 4685,
      "sprechen": 4686,
      "ĠJu": 4687,
      "Ġsuffer": 4688,
      "Ġabsolutely": 4689,
      "ĠMil": 4690,
      "Ġheut": 4691,
      "Ġrelating": 4692,
      "ĠStelle": 4693,
      "Ġbeschlossen": 4694,
      "ĠGerichts": 4695,
      "ĠBeschl": 4696,
      "pfen": 4697,
      "trÃ¤cht": 4698,
      "handlung": 4699,
      "ĠFrance": 4700,
      "ĠfÃ¶rdern": 4701,
      "LA": 4702,
      "erc": 4703,
      "ana": 4704,
      "hern": 4705,
      "uÃŁt": 4706,
      "staaten": 4707,
      "Ġbestimmten": 4708,
      "Ġweek": 4709,
      "Ġquickly": 4710,
      "leisten": 4711,
      "Ġtop": 4712,
      "ĠTÃ¤tigkeit": 4713,
      "gesamt": 4714,
      "theless": 4715,
      "auft": 4716,
      "ĠgewÃ¤hrleisten": 4717,
      "ellen": 4718,
      "hung": 4719,
      "Ġtalk": 4720,
      "Ġinfl": 4721,
      "Ġ17": 4722,
      "Ġjedem": 4723,
      "ĠselbstverstÃ¤ndlich": 4724,
      "Ġavo": 4725,
      "ait": 4726,
      "ĠKont": 4727,
      "ĠGrundsatz": 4728,
      "Ġrefle": 4729,
      "ĠFreiheit": 4730,
      "ĠProtokoll": 4731,
      "Qu": 4732,
      "Ġpat": 4733,
      "ĠVers": 4734,
      "Ġsex": 4735,
      "Ġrun": 4736,
      "ĠProzeÃŁ": 4737,
      "Ġprepar": 4738,
      "Ġconfidence": 4739,
      "zeichnet": 4740,
      "ĠInternational": 4741,
      "Ġelse": 4742,
      "ieht": 4743,
      "Ġnutzen": 4744,
      "ĠRass": 4745,
      "Ġproceed": 4746,
      "ĠDec": 4747,
      "iveness": 4748,
      "ĠbeglÃ¼ckw": 4749,
      "Ġhard": 4750,
      "imb": 4751,
      "Ġrein": 4752,
      "Ġleft": 4753,
      "meer": 4754,
      "teilen": 4755,
      "Ġallein": 4756,
      "produ": 4757,
      "Ġwirtschaftliche": 4758,
      "Ġlangu": 4759,
      "ĠpersÃ¶n": 4760,
      "ĠKomprom": 4761,
      "ktr": 4762,
      "ĠKÃ¶n": 4763,
      "ĠRuss": 4764,
      "Ġparty": 4765,
      "ĠOrgan": 4766,
      "Ġtalking": 4767,
      "Ġeinheit": 4768,
      "Ġgefordert": 4769,
      "ĠNationen": 4770,
      "Ġindic": 4771,
      "rifft": 4772,
      "handel": 4773,
      "Ġknowledge": 4774,
      "hof": 4775,
      "ĠschlieÃŁlich": 4776,
      "sÃ¤tze": 4777,
      "Ġfisheries": 4778,
      "ĠSchwierigkeiten": 4779,
      "ehen": 4780,
      "ĠHÃ¶": 4781,
      "zehn": 4782,
      "Ġhear": 4783,
      "Ġreceived": 4784,
      "isiert": 4785,
      "Ġpurs": 4786,
      "Ġvere": 4787,
      "ĠWo": 4788,
      "wendet": 4789,
      "Ġmonitoring": 4790,
      "uine": 4791,
      "yr": 4792,
      "arn": 4793,
      "Ã¼t": 4794,
      "ĠHaltung": 4795,
      "ourcen": 4796,
      "ĠHaushalt": 4797,
      "setzungen": 4798,
      "Ġreduce": 4799,
      "ĠDiskrimin": 4800,
      "Ġprecisely": 4801,
      "ĠPartner": 4802,
      "uly": 4803,
      "olicy": 4804,
      "ĠMitgliedstaat": 4805,
      "ĠForderung": 4806,
      "zufÃ¼hren": 4807,
      "ĠBeihilfen": 4808,
      "Ġhonourable": 4809,
      "ux": 4810,
      "Ġdanke": 4811,
      "tell": 4812,
      "standen": 4813,
      "conomic": 4814,
      "Ġdischarge": 4815,
      "mat": 4816,
      "ĠKraft": 4817,
      "Ġlight": 4818,
      "ume": 4819,
      "Ġmeisten": 4820,
      "Ġinteress": 4821,
      "Ġtradition": 4822,
      "Ġendlich": 4823,
      "Ġsectors": 4824,
      "Ġimmedi": 4825,
      "chanis": 4826,
      "Ġbehind": 4827,
      "dict": 4828,
      "ĠTerr": 4829,
      "Ġverbunden": 4830,
      "Ġirgend": 4831,
      "ĠForschung": 4832,
      "Firstly": 4833,
      "Ġpleased": 4834,
      "Ġfishing": 4835,
      "ief": 4836,
      "anced": 4837,
      "Ġought": 4838,
      "gehend": 4839,
      "Ġzug": 4840,
      "ĠhÃ¶ch": 4841,
      "kreich": 4842,
      "of": 4843,
      "ĠHuman": 4844,
      "ĠSchl": 4845,
      "Ġtell": 4846,
      "mitglie": 4847,
      "Ġbudgetary": 4848,
      "ĠGeschÃ¤ftsordnung": 4849,
      "Ġcompromise": 4850,
      "iere": 4851,
      "nungs": 4852,
      "oin": 4853,
      "Ġvol": 4854,
      "ĠRegional": 4855,
      "reiten": 4856,
      "ĠStraÃŁ": 4857,
      "ĠbegrÃ¼ÃŁe": 4858,
      "erve": 4859,
      "Ġtrotz": 4860,
      "rachte": 4861,
      "ĠSummit": 4862,
      "Ġerfolg": 4863,
      "ĠstÃ¤nd": 4864,
      "Ġapplied": 4865,
      "Ġrapid": 4866,
      "ĠUntersuch": 4867,
      "Ġconsidered": 4868,
      "Ġconsequences": 4869,
      "Ġspecifically": 4870,
      "Office": 4871,
      "Ġdut": 4872,
      "ande": 4873,
      "Ġbevor": 4874,
      "Ġlist": 4875,
      "ured": 4876,
      "Ġmodern": 4877,
      "ighted": 4878,
      "Ġ40": 4879,
      "wÃ¼rd": 4880,
      "Ġcrucial": 4881,
      "bet": 4882,
      "orr": 4883,
      "Ġine": 4884,
      "Ġabst": 4885,
      "ĠprÃ¼": 4886,
      "Ġreading": 4887,
      "Ġliberalisation": 4888,
      "ĠEntschlieÃŁungsantrag": 4889,
      "Further": 4890,
      "Ġtimes": 4891,
      "leben": 4892,
      "usions": 4893,
      "ĠMÃ¤r": 4894,
      "ĠDinge": 4895,
      "oph": 4896,
      "Ġabge": 4897,
      "istic": 4898,
      "Ġamount": 4899,
      "Ġdisas": 4900,
      "ĠgemÃ¤ÃŁ": 4901,
      "esterday": 4902,
      "iet": 4903,
      "Ġunbed": 4904,
      "ĠMor": 4905,
      "Ã¶sen": 4906,
      "formen": 4907,
      "ĠAnnahme": 4908,
      "Ġzumindest": 4909,
      "ĠAufmerksam": 4910,
      "Ġeinges": 4911,
      "Ġintegration": 4912,
      "Ġvorliegenden": 4913,
      "Ġinnov": 4914,
      "Ġrestrict": 4915,
      "Ġcriteria": 4916,
      "ĠAufmerksamkeit": 4917,
      "will": 4918,
      "Therefore": 4919,
      "Ġallgemeinen": 4920,
      "ĠAspekte": 4921,
      "haben": 4922,
      "oren": 4923,
      "Ġcred": 4924,
      "ĠPolicy": 4925,
      "Ġdefence": 4926,
      "Ġstability": 4927,
      "Ġobserv": 4928,
      "Ã¼hungen": 4929,
      "Ġgetro": 4930,
      "Ã¼nsch": 4931,
      "Ġgesprochen": 4932,
      "hoben": 4933,
      "Ġvalue": 4934,
      "ĠParteien": 4935,
      "ĠWachst": 4936,
      "Ġcalled": 4937,
      "denken": 4938,
      "industrie": 4939,
      "Ġincor": 4940,
      "wirken": 4941,
      "Ġeverything": 4942,
      "ĠKoordinierung": 4943,
      "imbab": 4944,
      "frei": 4945,
      "ool": 4946,
      "ĠSpiel": 4947,
      "quate": 4948,
      "Ġcho": 4949,
      "rats": 4950,
      "Ġlegitim": 4951,
      "Ġverbessern": 4952,
      "Ġnamely": 4953,
      "ĠIntegration": 4954,
      "Ġthough": 4955,
      "ĠmÃ¼ÃŁ": 4956,
      "Ġbear": 4957,
      "Ġdurchaus": 4958,
      "ĠKonferenz": 4959,
      "Ġregards": 4960,
      "Ġconsideration": 4961,
      "Ġeffects": 4962,
      "ĠKoh": 4963,
      "Ġrepresentatives": 4964,
      "rechend": 4965,
      "Ġsitting": 4966,
      "Bericht": 4967,
      "Ġrelevant": 4968,
      "ibe": 4969,
      "ĠVolk": 4970,
      "European": 4971,
      "Ġnormal": 4972,
      "Ġerinnern": 4973,
      "abak": 4974,
      "ensicht": 4975,
      "Ġcomments": 4976,
      "Ġspez": 4977,
      "Ġgetroffen": 4978,
      "Gen": 4979,
      "Ġbrit": 4980,
      "Ġverantwort": 4981,
      "ĠAnsatz": 4982,
      "graph": 4983,
      "ĠMenschenrechts": 4984,
      "schlieÃŁen": 4985,
      "bedingungen": 4986,
      "Ġcolleagues": 4987,
      "aden": 4988,
      "Ġaltern": 4989,
      "Ġcommunity": 4990,
      "stren": 4991,
      "Ġinvestment": 4992,
      "tember": 4993,
      "ĠVerpflichtungen": 4994,
      "ober": 4995,
      "tragen": 4996,
      "ison": 4997,
      "Ġkrit": 4998,
      "ished": 4999,
      "Ġversuchen": 5000,
      "Ġexperience": 5001,
      "Ġnimmt": 5002,
      "Ġcamp": 5003,
      "ĠDies": 5004,
      "ending": 5005,
      "Ġ16": 5006,
      "ĠvollstÃ¤nd": 5007,
      "Ġzweiten": 5008,
      "ĠVerwaltung": 5009,
      "Ġtraffic": 5010,
      "ĠDienstleist": 5011,
      "Ġcandidate": 5012,
      "hem": 5013,
      "Ġill": 5014,
      "hren": 5015,
      "estion": 5016,
      "Ġjustice": 5017,
      "kennen": 5018,
      "ĠHinsicht": 5019,
      "Ġfamily": 5020,
      "nern": 5021,
      "zub": 5022,
      "Ġunem": 5023,
      "Ġcontr": 5024,
      "uellen": 5025,
      "ategor": 5026,
      "Ġtry": 5027,
      "Ġpriorities": 5028,
      "ĠBeschÃ¤ftigungs": 5029,
      "action": 5030,
      "Ġsorgen": 5031,
      "Ġcut": 5032,
      "statt": 5033,
      "achten": 5034,
      "ierenden": 5035,
      "Ġspee": 5036,
      "Ġspezie": 5037,
      "Ġcapital": 5038,
      "Ġleben": 5039,
      "Ġdistrib": 5040,
      "Ġ198": 5041,
      "aat": 5042,
      "durch": 5043,
      "uern": 5044,
      "erweise": 5045,
      "chs": 5046,
      "ĠMÃ¤n": 5047,
      "ĠMinder": 5048,
      "Ġverab": 5049,
      "ĠLes": 5050,
      "wogen": 5051,
      "Ã¤ndert": 5052,
      "ĠRassismus": 5053,
      "agraph": 5054,
      "Ġgerecht": 5055,
      "Ġlive": 5056,
      "ĠTra": 5057,
      "grenz": 5058,
      "Ġreview": 5059,
      "Ġdemokratischen": 5060,
      "Ġbehandelt": 5061,
      "Ġbilateral": 5062,
      "ĠQualitÃ¤t": 5063,
      "ĠEisenbahn": 5064,
      "ding": 5065,
      "lies": 5066,
      "Ġweder": 5067,
      "Ġbitten": 5068,
      "ilar": 5069,
      "Ġverd": 5070,
      "ĠWissen": 5071,
      "ĠAusfÃ¼hr": 5072,
      "ĠAbsicht": 5073,
      "ĠAbsatz": 5074,
      "Ġpropose": 5075,
      "Ã¼tzen": 5076,
      "ĠDeut": 5077,
      "ĠLandes": 5078,
      "ĠSec": 5079,
      "zusetzen": 5080,
      "Ġfinanziellen": 5081,
      "Ġassessment": 5082,
      "Ġpollution": 5083,
      "atten": 5084,
      "Ġpen": 5085,
      "laÃŁ": 5086,
      "ously": 5087,
      "Ġusing": 5088,
      "icking": 5089,
      "Ġpurpose": 5090,
      "Ġconnection": 5091,
      "ĠNos": 5092,
      "Ġdirectives": 5093,
      "Ġwiederhol": 5094,
      "Ġvergessen": 5095,
      "ĠBSE": 5096,
      "ĠFern": 5097,
      "ĠmÃ¶chten": 5098,
      "aging": 5099,
      "accept": 5100,
      "Ġplans": 5101,
      "ptember": 5102,
      "Ġune": 5103,
      "pril": 5104,
      "ĠSeptember": 5105,
      "Ġcarry": 5106,
      "Ġconclusions": 5107,
      "Ġanderer": 5108,
      "ĠZustimmung": 5109,
      "Ġakzeptieren": 5110,
      "isieren": 5111,
      "emb": 5112,
      "Ġgiving": 5113,
      "ĠGrie": 5114,
      "Ġobtain": 5115,
      "Ġoverall": 5116,
      "ĠFremden": 5117,
      "ĠZustÃ¤nd": 5118,
      "ĠBemÃ¼hungen": 5119,
      "Ġbeitragen": 5120,
      "ĠGreece": 5121,
      "Furthermore": 5122,
      "Ã¼rger": 5123,
      "lauf": 5124,
      "ption": 5125,
      "Dieses": 5126,
      "ĠhÃ¤tten": 5127,
      "ĠFrankreich": 5128,
      "Ġjeweil": 5129,
      "ĠfranzÃ¶sischen": 5130,
      "When": 5131,
      "bs": 5132,
      "Ġwoll": 5133,
      "ĠAugen": 5134,
      "Ġforms": 5135,
      "istische": 5136,
      "fÃ¼hren": 5137,
      "gebung": 5138,
      "ĠAufgaben": 5139,
      "Ã¤mt": 5140,
      "Ġtakes": 5141,
      "Ġreference": 5142,
      "Ġgeschaffen": 5143,
      "Erstens": 5144,
      "Ġgesamte": 5145,
      "ĠMediterranean": 5146,
      "mark": 5147,
      "Ġaround": 5148,
      "Ġold": 5149,
      "Ġunaccept": 5150,
      "Ġtoba": 5151,
      "ĠApril": 5152,
      "icles": 5153,
      "ilities": 5154,
      "umst": 5155,
      "ĠÃ¼berhaupt": 5156,
      "chtung": 5157,
      "Ã¼nst": 5158,
      "ĠGrenzen": 5159,
      "Ġplann": 5160,
      "ĠfÃ¼hrt": 5161,
      "ec": 5162,
      "Ġvan": 5163,
      "Ġdeath": 5164,
      "Ġexcept": 5165,
      "ĠNicht": 5166,
      "ĠBeteil": 5167,
      "Ġ24": 5168,
      "Ġanything": 5169,
      "Ġformul": 5170,
      "Ġentsprechenden": 5171,
      "ĠBritish": 5172,
      "LAF": 5173,
      "Ġtobacco": 5174,
      "Ġsus": 5175,
      "teile": 5176,
      "Ġschem": 5177,
      "Ġinsgesamt": 5178,
      "Ġfell": 5179,
      "ffected": 5180,
      "Ġimprovement": 5181,
      "uted": 5182,
      "ister": 5183,
      "Ġhuge": 5184,
      "ĠKern": 5185,
      "ĠStat": 5186,
      "ĠNatur": 5187,
      "ĠEntwurf": 5188,
      "Ã¤ÃŁt": 5189,
      "ĠBeschluÃŁ": 5190,
      "Ġoccas": 5191,
      "ĠFamilien": 5192,
      "EG": 5193,
      "Ġever": 5194,
      "ĠPrÃ¤": 5195,
      "endit": 5196,
      "Ġcomment": 5197,
      "Ġsolidar": 5198,
      "rift": 5199,
      "Ġprovision": 5200,
      "Ġintended": 5201,
      "Ġbleibt": 5202,
      "ĠVerwaltungs": 5203,
      "Ġreferred": 5204,
      "Ġunge": 5205,
      "gelegten": 5206,
      "imbabwe": 5207,
      "ĠGriechen": 5208,
      "Vielen": 5209,
      "chter": 5210,
      "ĠBildung": 5211,
      "osla": 5212,
      "ugosla": 5213,
      "ĠEnvironment": 5214,
      "fahrens": 5215,
      "Ġclose": 5216,
      "Ġpractical": 5217,
      "ĠKÃ¶nig": 5218,
      "Dabei": 5219,
      "hÃ¤n": 5220,
      "Ġaffected": 5221,
      "Ġfig": 5222,
      "Ã¼gen": 5223,
      "Ġdespite": 5224,
      "pected": 5225,
      "ĠIniti": 5226,
      "Ġconsult": 5227,
      "Ġdiscussed": 5228,
      "Ġgleichen": 5229,
      "ĠMonaten": 5230,
      "ĠprÃ¼fen": 5231,
      "Ġdest": 5232,
      "tel": 5233,
      "Ġexport": 5234,
      "Ġevalu": 5235,
      "Ġurgent": 5236,
      "Ver": 5237,
      "handen": 5238,
      "Ġflexib": 5239,
      "Ġtook": 5240,
      "ĠTr": 5241,
      "Ġjen": 5242,
      "Ġrecently": 5243,
      "Ġtrying": 5244,
      "Ġwesentlichen": 5245,
      "Ġdringend": 5246,
      "PE": 5247,
      "ulf": 5248,
      "hrist": 5249,
      "ands": 5250,
      "ĠAnstren": 5251,
      "ĠEntlast": 5252,
      "Ġdamage": 5253,
      "Ġfeststellen": 5254,
      "Ġguten": 5255,
      "ĠGesundheits": 5256,
      "raten": 5257,
      "utter": 5258,
      "Ġdiesbe": 5259,
      "Ġrule": 5260,
      "Ġaccordance": 5261,
      "HO": 5262,
      "ma": 5263,
      "seit": 5264,
      "Ġcentral": 5265,
      "Ã¤ter": 5266,
      "ĠGed": 5267,
      "Ġdarstellt": 5268,
      "Ġenable": 5269,
      "Ġface": 5270,
      "losigkeit": 5271,
      "Ġlabour": 5272,
      "ĠVertrauen": 5273,
      "Ġunacceptable": 5274,
      "bank": 5275,
      "gere": 5276,
      "ucht": 5277,
      "ĠGewalt": 5278,
      "ciliation": 5279,
      "Ġsuppor": 5280,
      "Ġconsiderable": 5281,
      "ĠgehÃ¶ren": 5282,
      "ikanischen": 5283,
      "Ġsubstant": 5284,
      "Ġmodel": 5285,
      "ĠWorld": 5286,
      "Ġillegal": 5287,
      "Ġpotential": 5288,
      "xis": 5289,
      "Ġintens": 5290,
      "rachen": 5291,
      "Ġalong": 5292,
      "Ġcondem": 5293,
      "Ġrural": 5294,
      "velopment": 5295,
      "ĠVÃ¶lker": 5296,
      "More": 5297,
      "orn": 5298,
      "Ã¤st": 5299,
      "verty": 5300,
      "ahrungs": 5301,
      "Ġpoverty": 5302,
      "Meine": 5303,
      "Ġtechnology": 5304,
      "ĠBelg": 5305,
      "ĠgegenwÃ¤rtig": 5306,
      "Ġverhindern": 5307,
      "itors": 5308,
      "Ġpension": 5309,
      "Ġuner": 5310,
      "Ġkulture": 5311,
      "laufen": 5312,
      "zeugen": 5313,
      "Ġbecom": 5314,
      "Ġequal": 5315,
      "Ġzeigt": 5316,
      "hesion": 5317,
      "Ġunbedingt": 5318,
      "atÃ¼rlich": 5319,
      "Ġdiejenigen": 5320,
      "elten": 5321,
      "ĠVersch": 5322,
      "teilung": 5323,
      "Ġinvestig": 5324,
      "Ġdirection": 5325,
      "Ġadministrative": 5326,
      "iten": 5327,
      "Ġheard": 5328,
      "Ġefficient": 5329,
      "teilt": 5330,
      "Ġaccep": 5331,
      "Ġincreased": 5332,
      "ĠHaupt": 5333,
      "ĠStrukturfonds": 5334,
      "ĠFÃ¤llen": 5335,
      "ĠBalkan": 5336,
      "OM": 5337,
      "Ġmis": 5338,
      "Ġport": 5339,
      "idents": 5340,
      "ĠBeob": 5341,
      "Ġentschieden": 5342,
      "Ġ\".": 5343,
      "Ġhinter": 5344,
      "Ġexpla": 5345,
      "Ġdiscussions": 5346,
      "Ġscope": 5347,
      "ĠAusfÃ¼hrungen": 5348,
      "Os": 5349,
      "ĠhÃ¤": 5350,
      "uter": 5351,
      "Ġdays": 5352,
      "Ġcoher": 5353,
      "Ġeffiz": 5354,
      "Ġausgezeichne": 5355,
      "Ġrisks": 5356,
      "Ġcreating": 5357,
      "ĠJugend": 5358,
      "ĠLesung": 5359,
      "Ġvital": 5360,
      "ĠGar": 5361,
      "Ġrate": 5362,
      "ĠIntergovernmental": 5363,
      "Ġwichtigsten": 5364,
      "Ġthanks": 5365,
      "ĠWoche": 5366,
      "oden": 5367,
      "ĠsÃ¤mt": 5368,
      "Ġschool": 5369,
      "Ġdipl": 5370,
      "Ġhingewiesen": 5371,
      "ĠRegelungen": 5372,
      "Ġstaff": 5373,
      "works": 5374,
      "Ġoffensicht": 5375,
      "ĠFinanzierung": 5376,
      "ĠMEP": 5377,
      "anze": 5378,
      "Ã¶st": 5379,
      "Ġregret": 5380,
      "ĠÃĦnderungen": 5381,
      "zusch": 5382,
      "Ã¤rkung": 5383,
      "Ġopportunities": 5384,
      "ĠbewuÃŁt": 5385,
      "ĠTransport": 5386,
      "Ġfellow": 5387,
      "ĠAnstrengungen": 5388,
      "eben": 5389,
      "Ġfal": 5390,
      "teen": 5391,
      "Ġtot": 5392,
      "eind": 5393,
      "Ġalmost": 5394,
      "Ġschw": 5395,
      "Ġtack": 5396,
      "Ġelections": 5397,
      "Ġconclusion": 5398,
      "Europe": 5399,
      "Ġkleinen": 5400,
      "Ġaway": 5401,
      "Ġoil": 5402,
      "etary": 5403,
      "ĠTabak": 5404,
      "ĠNahrungs": 5405,
      "Ġyesterday": 5406,
      "ĠBezug": 5407,
      "Ġfinally": 5408,
      "Ġkonkreten": 5409,
      "Ġkonkrete": 5410,
      "Ġpowers": 5411,
      "Ġinstruments": 5412,
      "200": 5413,
      "aktor": 5414,
      "iance": 5415,
      "wise": 5416,
      "Ġthreat": 5417,
      "ĠVermitt": 5418,
      "ĠNov": 5419,
      "Ġwichtiger": 5420,
      "tructural": 5421,
      "Ġbusinesses": 5422,
      "Ġcircumst": 5423,
      "ĠdurchgefÃ¼hrt": 5424,
      "ĠLinie": 5425,
      "),": 5426,
      "ĠIde": 5427,
      "Ġforces": 5428,
      "lare": 5429,
      "Ã¤nden": 5430,
      "Ġalloc": 5431,
      "iko": 5432,
      "Ġprice": 5433,
      "ĠProjekte": 5434,
      "Ġfunktion": 5435,
      "ĠJustice": 5436,
      "Ġwiders": 5437,
      "ĠBild": 5438,
      "ets": 5439,
      "Ġprot": 5440,
      "Ġexerc": 5441,
      "ĠenthÃ¤lt": 5442,
      "Ġnachhalt": 5443,
      "ĠDez": 5444,
      "zieht": 5445,
      "ausschusses": 5446,
      "Ġmensch": 5447,
      "Ġbodies": 5448,
      "Ġsix": 5449,
      "ĠRom": 5450,
      "ĠlÃ¤ÃŁt": 5451,
      "Ġpolice": 5452,
      "Ġihres": 5453,
      "Ġfehl": 5454,
      "Ġstatus": 5455,
      "ĠHandels": 5456,
      "Ġreached": 5457,
      "Ġziehen": 5458,
      "Ġracism": 5459,
      "Ġsanctions": 5460,
      "erungs": 5461,
      "Ġbrief": 5462,
      "Ġmass": 5463,
      "arily": 5464,
      "ĠViel": 5465,
      "ĠerhÃ¶": 5466,
      "ĠWahr": 5467,
      "ĠSchiff": 5468,
      "ĠOLAF": 5469,
      "ĠPlan": 5470,
      "Ġcreated": 5471,
      "Ġpressure": 5472,
      "ĠKonflikt": 5473,
      "Ġincorpor": 5474,
      "Ã¼ro": 5475,
      "ĠbezÃ¼glich": 5476,
      "igital": 5477,
      "abkommen": 5478,
      "ĠWh": 5479,
      "ĠWert": 5480,
      "ĠNations": 5481,
      "eschrÃ¤n": 5482,
      "Ġreality": 5483,
      "Ġestablishing": 5484,
      "Ġbrought": 5485,
      "Ġdetail": 5486,
      "Ġelectr": 5487,
      "Ġgab": 5488,
      "ĠStud": 5489,
      "ĠAusbildung": 5490,
      "Ġacross": 5491,
      "Ġparliamentary": 5492,
      "Ġundertak": 5493,
      "Ġrefugees": 5494,
      "ĠKÃ¶nigreich": 5495,
      "rug": 5496,
      "Ġinfras": 5497,
      "Ġcoming": 5498,
      "Ġintervention": 5499,
      "ĠFehl": 5500,
      "Ġdemonstr": 5501,
      "Ġscheint": 5502,
      "Ġcircumstances": 5503,
      "Of": 5504,
      "bru": 5505,
      "ging": 5506,
      "kraft": 5507,
      "yond": 5508,
      "Ġgere": 5509,
      "ĠRess": 5510,
      "Ġprob": 5511,
      "Ġdesign": 5512,
      "Ġcommer": 5513,
      "Ġgoes": 5514,
      "ĠKollege": 5515,
      "ĠbeschrÃ¤n": 5516,
      "ĠstÃ¤rker": 5517,
      ").": 5518,
      "Ġemer": 5519,
      "Ġce": 5520,
      "Ġlot": 5521,
      "Ġsepar": 5522,
      "Ġord": 5523,
      "Ġseriously": 5524,
      "Ġtim": 5525,
      "Ġbur": 5526,
      "rach": 5527,
      "Ġlok": 5528,
      "issions": 5529,
      "ĠVerwendung": 5530,
      "ĠArmut": 5531,
      "ĠEinsatz": 5532,
      "Ġoutside": 5533,
      "rieben": 5534,
      "Ġmyself": 5535,
      "ĠGesamt": 5536,
      "Ġeffectively": 5537,
      "Fraktion": 5538,
      "ĠFebru": 5539,
      "ĠPrioritÃ¤ten": 5540,
      "ublik": 5541,
      "NatÃ¼rlich": 5542,
      "aign": 5543,
      "gn": 5544,
      "Ġsk": 5545,
      "Ġreject": 5546,
      "ĠKommun": 5547,
      "Ġdadurch": 5548,
      "ĠTun": 5549,
      "Ġvorsch": 5550,
      "pliz": 5551,
      "Ġpossibility": 5552,
      "Ġjedes": 5553,
      "ĠRats": 5554,
      "folgerungen": 5555,
      "ĠAufnahme": 5556,
      "gangenheit": 5557,
      "Ġmedium": 5558,
      "ĠNovember": 5559,
      "Ġmess": 5560,
      "ĠDruck": 5561,
      "ĠVergangenheit": 5562,
      "Ġfreue": 5563,
      "Ġerneut": 5564,
      "Ġerwarten": 5565,
      "Nun": 5566,
      "ĠWar": 5567,
      "ĠZivil": 5568,
      "Ġrene": 5569,
      "Ġproduc": 5570,
      "ĠBereiche": 5571,
      "ĠÃĦnderungsantrÃ¤gen": 5572,
      "Ġsustainable": 5573,
      "Ġavoid": 5574,
      "Le": 5575,
      "Ġsort": 5576,
      "ĠStructural": 5577,
      "ĠGrenz": 5578,
      "gelt": 5579,
      "zeugt": 5580,
      "Ġeingere": 5581,
      "Ġcreation": 5582,
      "Ġvorgeschlagenen": 5583,
      "ĠbenÃ¶t": 5584,
      "Ġentwickeln": 5585,
      "Ġscientific": 5586,
      "Ġcampaign": 5587,
      "zel": 5588,
      "Ġage": 5589,
      "Ġcross": 5590,
      "ĠAchtung": 5591,
      "Ġweak": 5592,
      "ĠWill": 5593,
      "Ġstaat": 5594,
      "Ġbesten": 5595,
      "ĠMittelmeer": 5596,
      "ĠFraktionen": 5597,
      "Ġindustrial": 5598,
      "Ġlimited": 5599,
      "Ġcapac": 5600,
      "Ġsum": 5601,
      "opol": 5602,
      "Ġsea": 5603,
      "pflich": 5604,
      "lieÃŁen": 5605,
      "ological": 5606,
      "Ġculture": 5607,
      "ĠIhrer": 5608,
      "Ġcaused": 5609,
      "EN": 5610,
      "wh": 5611,
      "Ġten": 5612,
      "Ġunan": 5613,
      "ĠDa": 5614,
      "Ġdev": 5615,
      "Ġspir": 5616,
      "Ġfestgelegt": 5617,
      "Meiner": 5618,
      "Ġergreifen": 5619,
      "llos": 5620,
      "amm": 5621,
      "Ġexch": 5622,
      "ĠNord": 5623,
      "Ġcombat": 5624,
      "ĠBerichte": 5625,
      "ĠPrÃ¤sidenten": 5626,
      "Ġeffe": 5627,
      "Ġnatural": 5628,
      "Ġviews": 5629,
      "Ġcommitted": 5630,
      "Ġindependent": 5631,
      "ktivitÃ¤ten": 5632,
      "Ġadditional": 5633,
      "Ġzustimmen": 5634,
      "Ġtrafficking": 5635,
      "ĠGipfel": 5636,
      "ĠSanktionen": 5637,
      "Gleich": 5638,
      "gre": 5639,
      "wenden": 5640,
      "orgung": 5641,
      "ĠPPE": 5642,
      "ĠSonder": 5643,
      "Ġuseful": 5644,
      "Ġgoods": 5645,
      "Ġauthority": 5646,
      "Ġstructural": 5647,
      "ĠProjekt": 5648,
      "ĠDirective": 5649,
      "inden": 5650,
      "unktion": 5651,
      "Ġgrat": 5652,
      "derungen": 5653,
      "Ġgewor": 5654,
      "Ġverurteil": 5655,
      "lad": 5656,
      "Ġenorm": 5657,
      "Ġstets": 5658,
      "gÃ¼lt": 5659,
      "Ġtar": 5660,
      "Ġbeyond": 5661,
      "ĠKar": 5662,
      "ĠHarmon": 5663,
      "Ġneuer": 5664,
      "Ġexact": 5665,
      "rÃ¤ft": 5666,
      "Ġ\",": 5667,
      "auern": 5668,
      "Ġ1996": 5669,
      "ĠStaat": 5670,
      "Ġnotwendigen": 5671,
      "ĠauÃŁerdem": 5672,
      "Ġpersonal": 5673,
      "FR": 5674,
      "zul": 5675,
      "Ġtreffen": 5676,
      "olid": 5677,
      "bericht": 5678,
      "Ġvorhanden": 5679,
      "rÃ¤fte": 5680,
      "ression": 5681,
      "itude": 5682,
      "Ġdiscussing": 5683,
      "Ġdifficulties": 5684,
      "Ġinfrastruct": 5685,
      "hnung": 5686,
      "oz": 5687,
      "Ġdate": 5688,
      "ĠSwed": 5689,
      "ĠFunds": 5690,
      "Ġliving": 5691,
      "Ġverk": 5692,
      "ĠBewertung": 5693,
      "wirte": 5694,
      "Ġbestehenden": 5695,
      "ĠWerte": 5696,
      "ĠvernÃ¼nft": 5697,
      "AD": 5698,
      "where": 5699,
      "Ġinstead": 5700,
      "Ġtour": 5701,
      "urd": 5702,
      "Ġeinzu": 5703,
      "ĠCentral": 5704,
      "ends": 5705,
      "sibilities": 5706,
      "ĠMaÃŁe": 5707,
      "Ġhoffen": 5708,
      "Ġmorning": 5709,
      "Ġdangerous": 5710,
      "Ġtotally": 5711,
      "entscheid": 5712,
      "Ã¼g": 5713,
      "omb": 5714,
      "abel": 5715,
      "Ġstra": 5716,
      "Ġdirectly": 5717,
      "Ġeinzige": 5718,
      "Ġgering": 5719,
      "Ġimplementing": 5720,
      "Ġadvant": 5721,
      "Ġreceive": 5722,
      "Ġkonnte": 5723,
      "Ġheutigen": 5724,
      "Ġunemployment": 5725,
      "30": 5726,
      "Ġbi": 5727,
      "Ġbem": 5728,
      "ingd": 5729,
      "ĠSÃ¼d": 5730,
      "amber": 5731,
      "otes": 5732,
      "Ġsour": 5733,
      "ĠVerf": 5734,
      "utzt": 5735,
      "Ġexpendit": 5736,
      "Ġseek": 5737,
      "Ġorganised": 5738,
      "Ġspeaking": 5739,
      "ĠmilitÃ¤r": 5740,
      "ĠArbeitsplÃ¤tze": 5741,
      "Ġcondemn": 5742,
      "jahr": 5743,
      "mÃ¶glichkeit": 5744,
      "ox": 5745,
      "ĠEl": 5746,
      "Ġeiniger": 5747,
      "Ġbetonen": 5748,
      "barkeit": 5749,
      "ĠGebieten": 5750,
      "Ġentsprechend": 5751,
      "frastruktur": 5752,
      "fect": 5753,
      "kung": 5754,
      "zÃ¶": 5755,
      "Ġwelt": 5756,
      "Ġmet": 5757,
      "ĠFalle": 5758,
      "ibility": 5759,
      "gesundheit": 5760,
      "Ġspeed": 5761,
      "chnungs": 5762,
      "ĠTechnolog": 5763,
      "ĠmÃ¶glichst": 5764,
      "ĠAmendments": 5765,
      "ĠBalkans": 5766,
      "Ġsetting": 5767,
      "ĠbeglÃ¼ckwÃ¼nschen": 5768,
      "Ġexpenditure": 5769,
      "Lassen": 5770,
      "Ġade": 5771,
      "ĠKrieg": 5772,
      "Ġextens": 5773,
      "ĠNetz": 5774,
      "ĠAnerk": 5775,
      "reichend": 5776,
      "Ġdevelopments": 5777,
      "ĠStellen": 5778,
      "Ġpointed": 5779,
      "ĠRegeln": 5780,
      "Ġterror": 5781,
      "ĠfrÃ¼her": 5782,
      "Ġveh": 5783,
      "ĠWes": 5784,
      "Ġdeveloped": 5785,
      "Ġkonzentr": 5786,
      "Ġsomit": 5787,
      "Ġaccession": 5788,
      "programm": 5789,
      "Ġreturn": 5790,
      "Ġassoci": 5791,
      "ĠÃ¤ndern": 5792,
      "Ġsinn": 5793,
      "ĠPrÃ¼": 5794,
      "icien": 5795,
      "Ġreag": 5796,
      "ourn": 5797,
      "Ã¼nsche": 5798,
      "werk": 5799,
      "strumente": 5800,
      "ĠbestÃ¤t": 5801,
      "Ġfraud": 5802,
      "Ġminimum": 5803,
      "ĠSwedish": 5804,
      "reff": 5805,
      "Ġquot": 5806,
      "ussels": 5807,
      "ĠZeitraum": 5808,
      "Ġrequires": 5809,
      "stitutional": 5810,
      "iederl": 5811,
      "ĠLeitlinien": 5812,
      "Ġcontrary": 5813,
      "glicht": 5814,
      "nungen": 5815,
      "uni": 5816,
      "ush": 5817,
      "Ġverpflich": 5818,
      "ĠLux": 5819,
      "Ġjur": 5820,
      "Ġsieht": 5821,
      "ĠOrt": 5822,
      "Ġsimilar": 5823,
      "ĠHandel": 5824,
      "ĠermÃ¶glicht": 5825,
      "odell": 5826,
      "Ob": 5827,
      "cke": 5828,
      "hre": 5829,
      "spe": 5830,
      "ĠÃ¤": 5831,
      "Ġdom": 5832,
      "ĠSelbst": 5833,
      "schlossen": 5834,
      "Ġsound": 5835,
      "Ġverstehen": 5836,
      "Ġways": 5837,
      "Ġhalf": 5838,
      "Ġerforderlichen": 5839,
      "orgnis": 5840,
      "ĠLebensmittel": 5841,
      "unkten": 5842,
      "Ã¤s": 5843,
      "Ġexplan": 5844,
      "Ġumgesetzt": 5845,
      "anzen": 5846,
      "Ġapplies": 5847,
      "acio": 5848,
      "Ġmeasure": 5849,
      "ĠJustiz": 5850,
      "uber": 5851,
      "Ġdiv": 5852,
      "iell": 5853,
      "ĠEind": 5854,
      "amb": 5855,
      "Ġgenannten": 5856,
      "ĠDevelopment": 5857,
      "Ġargument": 5858,
      "Ġproduce": 5859,
      "Ġparagraph": 5860,
      "Ġorganisation": 5861,
      "Ġcurren": 5862,
      "Ġactivity": 5863,
      "ĠPalacio": 5864,
      "Ġimmigration": 5865,
      "Ġangemessen": 5866,
      "Ġsolidarity": 5867,
      "IP": 5868,
      "Ġign": 5869,
      "ĠBur": 5870,
      "Ġcondu": 5871,
      "ĠVerhÃ¤lt": 5872,
      "rank": 5873,
      "bezogen": 5874,
      "ired": 5875,
      "achtung": 5876,
      "Ġrecognise": 5877,
      "ĠKriterien": 5878,
      "ĠInvestitionen": 5879,
      "Ġpaid": 5880,
      "onnen": 5881,
      "Ġmaterial": 5882,
      "Ġhome": 5883,
      "igungen": 5884,
      "Ġzentral": 5885,
      "ĠSorge": 5886,
      "Ġgrant": 5887,
      "Ġresolutions": 5888,
      "Ġbody": 5889,
      "Ġparticipation": 5890,
      "Ġencourage": 5891,
      "ĠPraxis": 5892,
      "erungen": 5893,
      "Ġsogen": 5894,
      "oping": 5895,
      "Ġleave": 5896,
      "Ġviolence": 5897,
      "ĠPreis": 5898,
      "Ġoffensichtlich": 5899,
      "anted": 5900,
      "Ġanzu": 5901,
      "Ġanerk": 5902,
      "Ġdep": 5903,
      "Ġstated": 5904,
      "Ġprim": 5905,
      "Ġevents": 5906,
      "Ã¤nderungen": 5907,
      "hÃ¶rde": 5908,
      "Ġfirstly": 5909,
      "Ġconfirm": 5910,
      "Ġallowed": 5911,
      "Ġdocuments": 5912,
      "Ġadministration": 5913,
      "Ġproperly": 5914,
      "Ġunanim": 5915,
      "ĠAnerkennung": 5916,
      "Is": 5917,
      "Now": 5918,
      "entwick": 5919,
      "ĠDro": 5920,
      "Ġshown": 5921,
      "ounts": 5922,
      "Ġnochmals": 5923,
      "ĠGesprÃ¤": 5924,
      "Allerdings": 5925,
      "Ġchallenge": 5926,
      "ĠMEDA": 5927,
      "Ġexchange": 5928,
      "met": 5929,
      "leisch": 5930,
      "ĠjÃ¼n": 5931,
      "Ġintention": 5932,
      "ĠÃľberwach": 5933,
      "ĠMitteln": 5934,
      "ĠPortugal": 5935,
      "Ġinstitutional": 5936,
      "unternehmen": 5937,
      "mÃ¤ÃŁig": 5938,
      "ĠPlenum": 5939,
      "Ġsupported": 5940,
      "lier": 5941,
      "system": 5942,
      "tes": 5943,
      "Ġsage": 5944,
      "rehens": 5945,
      "ĠSweden": 5946,
      "ulierung": 5947,
      "ilitÃ¤t": 5948,
      "Ġlog": 5949,
      "Ġschle": 5950,
      "ĠBef": 5951,
      "Ġensuring": 5952,
      "Ġreduction": 5953,
      "Ġbessere": 5954,
      "Ġannual": 5955,
      "ĠFundamental": 5956,
      "Ġnetworks": 5957,
      "ktron": 5958,
      "Ġprobably": 5959,
      "Ġthus": 5960,
      "Ġside": 5961,
      "atch": 5962,
      "Ã¤us": 5963,
      "Ġverurs": 5964,
      "Ġerschein": 5965,
      "opp": 5966,
      "ĠRev": 5967,
      "Ġprices": 5968,
      "pective": 5969,
      "Ġdealing": 5970,
      "Ġhumanitarian": 5971,
      "Ġpartnership": 5972,
      "Ġcapacity": 5973,
      "Ġgeworden": 5974,
      "frieden": 5975,
      "hab": 5976,
      "undert": 5977,
      "ietet": 5978,
      "rahmen": 5979,
      "ĠKatastrop": 5980,
      "ots": 5981,
      "ffnung": 5982,
      "indet": 5983,
      "ĠNational": 5984,
      "rittens": 5985,
      "okraten": 5986,
      "Ġsystemat": 5987,
      "Ġauthor": 5988,
      "Ġhighly": 5989,
      "ĠBrussels": 5990,
      "Ġtreatment": 5991,
      "Ġbeginning": 5992,
      "ĠkÃ¼nftig": 5993,
      "Ġcheck": 5994,
      "Ġverpflichtet": 5995,
      "Ġbill": 5996,
      "ĠTod": 5997,
      "ĠRechnungs": 5998,
      "ufact": 5999,
      "ureau": 6000,
      "Ġschwed": 6001,
      "gruppen": 6002,
      "Ġcounter": 6003,
      "Ġrespond": 6004,
      "ex": 6005,
      "ike": 6006,
      "eres": 6007,
      "Ġpack": 6008,
      "ĠMan": 6009,
      "ktors": 6010,
      "ĠVertrÃ¤ge": 6011,
      "Ġmax": 6012,
      "Ġdeclar": 6013,
      "erkunft": 6014,
      "ĠBrÃ¼ssel": 6015,
      "Ġtyp": 6016,
      "Ġagriculture": 6017,
      "ĠGegenteil": 6018,
      "ĠSolidar": 6019,
      "Ġcontract": 6020,
      "ĠGermany": 6021,
      "ought": 6022,
      "Ġsym": 6023,
      "arch": 6024,
      "Ġbekommen": 6025,
      "ĠSc": 6026,
      "ĠSouth": 6027,
      "ĠMio": 6028,
      "etimes": 6029,
      "Ġaufmerksam": 6030,
      "ĠZentral": 6031,
      "Ġdarstellen": 6032,
      "Ġimpos": 6033,
      "Ġkeines": 6034,
      "ĠPriv": 6035,
      "letzt": 6036,
      "Ġweltweit": 6037,
      "blemen": 6038,
      "bringen": 6039,
      "ĠII": 6040,
      "vergen": 6041,
      "beziehung": 6042,
      "Ġkontro": 6043,
      "ĠEntscheidungs": 6044,
      "Ġentsprechende": 6045,
      "ĠVerteidigungs": 6046,
      "Ġaccepted": 6047,
      "ĠLuxem": 6048,
      "En": 6049,
      "Ġzunehmen": 6050,
      "achtet": 6051,
      "fordern": 6052,
      "ibet": 6053,
      "Ġmanufact": 6054,
      "strÃ¶": 6055,
      "Ġempf": 6056,
      "schiede": 6057,
      "ĠerwÃ¤hnt": 6058,
      "Ġsubmitted": 6059,
      "kontrolle": 6060,
      "Bet": 6061,
      "haus": 6062,
      "sum": 6063,
      "atik": 6064,
      "Ġherr": 6065,
      "ĠAktionen": 6066,
      "Ġganze": 6067,
      "Ġalone": 6068,
      "Ã¤mpfen": 6069,
      "Ġgeschehen": 6070,
      "Ġspeakers": 6071,
      "ĠWÃ¤hrung": 6072,
      "Ġobviously": 6073,
      "ĠInitiativen": 6074,
      "Ġunfortunately": 6075,
      "imin": 6076,
      "Ġgern": 6077,
      "schreit": 6078,
      "ĠGene": 6079,
      "Ġgeleistet": 6080,
      "Ã¼tzt": 6081,
      "Ġliebe": 6082,
      "ĠPolitiken": 6083,
      "Ġlooking": 6084,
      "Ġoccur": 6085,
      "ĠHarmonisierung": 6086,
      "ÃŃ": 6087,
      "Ġgekommen": 6088,
      "Ġimpl": 6089,
      "Ġlearn": 6090,
      "anner": 6091,
      "sektor": 6092,
      "Ġgestern": 6093,
      "lÃ¤ss": 6094,
      "Ġurge": 6095,
      "Ġstandard": 6096,
      "ĠMinisters": 6097,
      "andidaten": 6098,
      "Ġexplo": 6099,
      "wesen": 6100,
      "aly": 6101,
      "Ġanwes": 6102,
      "Ġunivers": 6103,
      "Ġdealt": 6104,
      "Ġdeep": 6105,
      "Ġship": 6106,
      "Ġbetrachte": 6107,
      "Ġwarum": 6108,
      "ĠAusschuss": 6109,
      "Ġinternationale": 6110,
      "Ġnegative": 6111,
      "Ġsicherlich": 6112,
      "ĠFriedens": 6113,
      "zesses": 6114,
      "Ġsafegu": 6115,
      "ĠDiskriminierung": 6116,
      "ĠRessourcen": 6117,
      "Do": 6118,
      "Ġthought": 6119,
      "ieben": 6120,
      "Ġfrei": 6121,
      "ĠEt": 6122,
      "esehen": 6123,
      "Ġ22": 6124,
      "Ġinterv": 6125,
      "Ġoperation": 6126,
      "Ġtele": 6127,
      "aret": 6128,
      "ĠÃ¶ffentliche": 6129,
      "DarÃ¼ber": 6130,
      "Unsere": 6131,
      "ĠOrganisationen": 6132,
      "ĠWiederauf": 6133,
      "Ġeingesetzt": 6134,
      "ĠEntlastung": 6135,
      "ehm": 6136,
      "isp": 6137,
      "Ġsent": 6138,
      "uth": 6139,
      "elon": 6140,
      "Ġvoraus": 6141,
      "gesetz": 6142,
      "udge": 6143,
      "ĠGruppe": 6144,
      "Ġspielen": 6145,
      "icherung": 6146,
      "Ġfestgestellt": 6147,
      "Ġacqu": 6148,
      "ĠPatent": 6149,
      "Ġpositiv": 6150,
      "Ġspeech": 6151,
      "Ġproducers": 6152,
      "Ġwid": 6153,
      "Ġbig": 6154,
      "asbourg": 6155,
      "imate": 6156,
      "ĠBudget": 6157,
      "tedly": 6158,
      "ĠVorbereit": 6159,
      "Ġberu": 6160,
      "ĠEinhaltung": 6161,
      "Ġremember": 6162,
      "Ġremark": 6163,
      "Ġcommitments": 6164,
      "Ġlangfrist": 6165,
      "undsÃ¤tz": 6166,
      "Ġtransparent": 6167,
      "ĠVereinbarung": 6168,
      "ĠKommissionsmitglie": 6169,
      "ĠjÃ¼ng": 6170,
      "acy": 6171,
      "bung": 6172,
      "Ġself": 6173,
      "ĠPaper": 6174,
      "ĠÃ¼berw": 6175,
      "zeuge": 6176,
      "uded": 6177,
      "Ġunternehmen": 6178,
      "Ġgewesen": 6179,
      "ampere": 6180,
      "Ġhohen": 6181,
      "Dazu": 6182,
      "grundlage": 6183,
      "ĠBetrie": 6184,
      "ĠauÃŁerord": 6185,
      "Ġattempt": 6186,
      "Ġpursu": 6187,
      "ĠDeutsch": 6188,
      "50": 6189,
      "MU": 6190,
      "ew": 6191,
      "falt": 6192,
      "vors": 6193,
      "Ġname": 6194,
      "ompliz": 6195,
      "ĠÃ¼berzeugt": 6196,
      "ĠEinzel": 6197,
      "ĠEinbeziehung": 6198,
      "Ġstrict": 6199,
      "Ġimproving": 6200,
      "ĠMedien": 6201,
      "ĠNew": 6202,
      "Ġversucht": 6203,
      "Ġportugiesischen": 6204,
      "ĠIraq": 6205,
      "ĠDecember": 6206,
      "ĠhÃ¤ufig": 6207,
      "making": 6208,
      "pret": 6209,
      "rong": 6210,
      "Ġdigital": 6211,
      "unsch": 6212,
      "Ġzufrieden": 6213,
      "deed": 6214,
      "ĠTampere": 6215,
      "ĠÃ¼bernehmen": 6216,
      "erences": 6217,
      "zeigt": 6218,
      "legungen": 6219,
      "Ġart": 6220,
      "ĠÃľbergang": 6221,
      "ĠFinn": 6222,
      "Ġelektron": 6223,
      "ĠGebiete": 6224,
      "ĠgrÃ¶ÃŁere": 6225,
      "sprÃ¼n": 6226,
      "Ġhighlight": 6227,
      "Ġanalysis": 6228,
      "ĠKompromiÃŁ": 6229,
      "Ġverehrte": 6230,
      "ĠÃ¤hn": 6231,
      "mand": 6232,
      "indern": 6233,
      "Ġet": 6234,
      "ury": 6235,
      "ĠPh": 6236,
      "ĠBl": 6237,
      "Ġdagegen": 6238,
      "Ġconcept": 6239,
      "Ġneu": 6240,
      "Ã¤ne": 6241,
      "erner": 6242,
      "Ġquant": 6243,
      "ĠStraf": 6244,
      "ĠMEPs": 6245,
      "IF": 6246,
      "Ġwait": 6247,
      "Ġwanted": 6248,
      "tei": 6249,
      "Ã¤her": 6250,
      "ommer": 6251,
      "Ġersch": 6252,
      "ĠNutzung": 6253,
      "ĠDelegation": 6254,
      "Ġproviding": 6255,
      "ĠForderungen": 6256,
      "Ġreforms": 6257,
      "ifellos": 6258,
      "Ġalternative": 6259,
      "Since": 6260,
      "bild": 6261,
      "bÃ¼rger": 6262,
      "lo": 6263,
      "Ġwrong": 6264,
      "Ġbillion": 6265,
      "Ġfear": 6266,
      "Ġunmittel": 6267,
      "igaret": 6268,
      "iveau": 6269,
      "Ġground": 6270,
      "Ġreply": 6271,
      "ĠForschungs": 6272,
      "Ġzahlreiche": 6273,
      "Ġdiskutieren": 6274,
      "Ġradio": 6275,
      "ĠKrisen": 6276,
      "iter": 6277,
      "itial": 6278,
      "Ã¤fen": 6279,
      "Ġeinsetzen": 6280,
      "Ġgain": 6281,
      "Ġgesehen": 6282,
      "ĠAnfang": 6283,
      "Ġentgegen": 6284,
      "Ġ23": 6285,
      "Ġrightly": 6286,
      "ĠRatsprÃ¤sidentschaft": 6287,
      "Ġmessage": 6288,
      "ĠbemÃ¼": 6289,
      "CP": 6290,
      "ritte": 6291,
      "Ġeher": 6292,
      "ĠFahr": 6293,
      "Ġdescr": 6294,
      "ĠWiders": 6295,
      "Ġcomplex": 6296,
      "wortet": 6297,
      "Ġganzen": 6298,
      "prÃ¼ft": 6299,
      "Ġfunction": 6300,
      "ĠverfÃ¼gen": 6301,
      "ĠErfahrungen": 6302,
      "dra": 6303,
      "wel": 6304,
      "erer": 6305,
      "ernen": 6306,
      "Ġbeein": 6307,
      "ĠPost": 6308,
      "ĠMay": 6309,
      "Ġgeograph": 6310,
      "ierter": 6311,
      "Ġverfolgen": 6312,
      "ĠHerkunft": 6313,
      "Ġcohesion": 6314,
      "ĠGrunde": 6315,
      "gerung": 6316,
      "ĠEinfl": 6317,
      "ĠspÃ¤ter": 6318,
      "ĠAspekt": 6319,
      "ĠFortsch": 6320,
      "Ġanti": 6321,
      "ĠRepublic": 6322,
      "ĠlÃ¤ndlichen": 6323,
      "Ġeffizient": 6324,
      "ĠDezember": 6325,
      "Dem": 6326,
      "KP": 6327,
      "Ġsitu": 6328,
      "Ġverm": 6329,
      "ĠTier": 6330,
      "ensions": 6331,
      "rÃ¤gt": 6332,
      "Ġknown": 6333,
      "Ġdrawn": 6334,
      "zeichnung": 6335,
      "ĠÃ¶ffentlich": 6336,
      "Ġsuccessful": 6337,
      "ĠerklÃ¤rt": 6338,
      "Ġrenew": 6339,
      "Von": 6340,
      "ave": 6341,
      "dienst": 6342,
      "ipp": 6343,
      "Ġwonder": 6344,
      "reland": 6345,
      "Ġdead": 6346,
      "opo": 6347,
      "Ġjene": 6348,
      "Ġcode": 6349,
      "Ġrise": 6350,
      "ĠInhalt": 6351,
      "ĠBerlin": 6352,
      "Ġ28": 6353,
      "Mrs": 6354,
      "Ġgesetzt": 6355,
      "Ġarran": 6356,
      "Ġmedia": 6357,
      "ĠStrasbourg": 6358,
      "mittag": 6359,
      "ĠWahlen": 6360,
      "min": 6361,
      "Ġmanner": 6362,
      "Ġdelegation": 6363,
      "Ġnear": 6364,
      "ays": 6365,
      "weist": 6366,
      "Ġ100": 6367,
      "Ġthinking": 6368,
      "fallen": 6369,
      "Ġ2002": 6370,
      "ĠZweifel": 6371,
      "ĠVerpflichtung": 6372,
      "AS": 6373,
      "rec": 6374,
      "Ġmil": 6375,
      "Ġfragen": 6376,
      "Ġelement": 6377,
      "Ġnah": 6378,
      "Ġred": 6379,
      "schuld": 6380,
      "ĠDen": 6381,
      "ĠStad": 6382,
      "ĠAng": 6383,
      "ording": 6384,
      "Ġraise": 6385,
      "lÃ¤ÃŁ": 6386,
      "ology": 6387,
      "gemÃ¤ÃŁ": 6388,
      "richtungen": 6389,
      "Ġbringt": 6390,
      "Ġappropriations": 6391,
      "ĠFolge": 6392,
      "ĠKritik": 6393,
      "Ġearlier": 6394,
      "ĠerfÃ¼llen": 6395,
      "ĠEmpfehlung": 6396,
      "auftrag": 6397,
      "Ġexactly": 6398,
      "ĠSolidaritÃ¤t": 6399,
      "20": 6400,
      "vere": 6401,
      "ĠEast": 6402,
      "dere": 6403,
      "Ġlater": 6404,
      "ffiz": 6405,
      "Ġleicht": 6406,
      "ustaus": 6407,
      "okol": 6408,
      "Ġactive": 6409,
      "Ġproduced": 6410,
      "ginn": 6411,
      "ĠendgÃ¼lt": 6412,
      "Ġsometimes": 6413,
      "Ġ60": 6414,
      "ĠSchluÃŁfolgerungen": 6415,
      "fu": 6416,
      "kish": 6417,
      "Ġfirm": 6418,
      "ĠAud": 6419,
      "ĠIreland": 6420,
      "Ġlives": 6421,
      "ense": 6422,
      "Ġextra": 6423,
      "Ġsolutions": 6424,
      "istence": 6425,
      "ĠursprÃ¼n": 6426,
      "Ġmainly": 6427,
      "ĠStraÃŁen": 6428,
      "Ġ80": 6429,
      "gewicht": 6430,
      "ĠAustrian": 6431,
      "Ġmerely": 6432,
      "ĠAbschluÃŁ": 6433,
      "Ġduty": 6434,
      "Sub": 6435,
      "ZunÃ¤chst": 6436,
      "feld": 6437,
      "unt": 6438,
      "Ġworth": 6439,
      "Ġfulf": 6440,
      "used": 6441,
      "ĠAktivitÃ¤ten": 6442,
      "Ġalco": 6443,
      "Ã¤nz": 6444,
      "ĠBehandlung": 6445,
      "ĠSchweden": 6446,
      "iedr": 6447,
      "Ġcontribute": 6448,
      "ĠAfrika": 6449,
      "Ġzehn": 6450,
      "Ġbald": 6451,
      "Ġdemands": 6452,
      "ĠWochen": 6453,
      "Ġrepeat": 6454,
      "setzt": 6455,
      "inced": 6456,
      "isc": 6457,
      "Ġinitial": 6458,
      "ĠMiÃŁ": 6459,
      "Ġexcess": 6460,
      "liegt": 6461,
      "Ġvorher": 6462,
      "ience": 6463,
      "auen": 6464,
      "itzen": 6465,
      "Unter": 6466,
      "gestimmt": 6467,
      "ĠBeitritt": 6468,
      "ĠTreaties": 6469,
      "iarity": 6470,
      "Ġcommercial": 6471,
      "Ġspirit": 6472,
      "Wer": 6473,
      "af": 6474,
      "uelle": 6475,
      "val": 6476,
      "Ġtem": 6477,
      "Ġbr": 6478,
      "Ġlik": 6479,
      "ĠDan": 6480,
      "ĠTour": 6481,
      "Ġvielmehr": 6482,
      "Ġstattfinden": 6483,
      "Ġzeigen": 6484,
      "Ġborders": 6485,
      "ĠÃľbereinkommen": 6486,
      "Ġkonnten": 6487,
      "Ġerzielt": 6488,
      "ocolate": 6489,
      "ĠGriechenland": 6490,
      "Ġcurrency": 6491,
      "EAD": 6492,
      "vis": 6493,
      "ones": 6494,
      "anten": 6495,
      "Ġkompliz": 6496,
      "Ġcooper": 6497,
      "lÃ¤gt": 6498,
      "zeichnen": 6499,
      "Ġregionalen": 6500,
      "Ġsimple": 6501,
      "ĠÃ¼brig": 6502,
      "Ġcolleague": 6503,
      "Ġofficials": 6504,
      "Ġfront": 6505,
      "ĠZustÃ¤ndigkeit": 6506,
      "Ġsubstantial": 6507,
      "Ġkontroll": 6508,
      "NT": 6509,
      "Ġbar": 6510,
      "ederal": 6511,
      "oses": 6512,
      "Ġergriffen": 6513,
      "ĠAnfrage": 6514,
      "ĠausfÃ¼hr": 6515,
      "ĠBegriff": 6516,
      "Ġprevention": 6517,
      "evertheless": 6518,
      "ĠVerbindung": 6519,
      "ĠgrundsÃ¤tz": 6520,
      "Ġsonst": 6521,
      "ĠTele": 6522,
      "ĠMont": 6523,
      "jected": 6524,
      "Ġdirekt": 6525,
      "ĠSeiten": 6526,
      "coming": 6527,
      "ĠSolana": 6528,
      "Ġstudy": 6529,
      "Ġschwierig": 6530,
      "ĠEindruck": 6531,
      "stra": 6532,
      "ĠVerhalten": 6533,
      "Ġjoin": 6534,
      "annte": 6535,
      "cknow": 6536,
      "ranted": 6537,
      "ĠGrundsÃ¤tze": 6538,
      "suchen": 6539,
      "Ġausgewogen": 6540,
      "ĠVereinten": 6541,
      "Ġclosely": 6542,
      "body": 6543,
      "ĠZusatz": 6544,
      "ĠPolize": 6545,
      "EADER": 6546,
      "iled": 6547,
      "zust": 6548,
      "Ġmut": 6549,
      "ĠAKP": 6550,
      "ĠRules": 6551,
      "absicht": 6552,
      "verse": 6553,
      "ĠAusgaben": 6554,
      "Ġdivers": 6555,
      "Ġgrounds": 6556,
      "Ġmehrere": 6557,
      "Ġrelig": 6558,
      "konom": 6559,
      "ĠVolksgesundheit": 6560,
      "zwe": 6561,
      "Ġdank": 6562,
      "Ġhour": 6563,
      "ortion": 6564,
      "ĠBeam": 6565,
      "Ġjede": 6566,
      "werte": 6567,
      "lieÃŁlich": 6568,
      "Ġgemeinschaftlichen": 6569,
      "Ġinvolving": 6570,
      "Ġdefinition": 6571,
      "ĠECHO": 6572,
      "Ġbetroffenen": 6573,
      "Ġreflect": 6574,
      "ophob": 6575,
      "reffend": 6576,
      "ĠÂŃ": 6577,
      "Ġacknow": 6578,
      "ĠwÃ¤ren": 6579,
      "Ġbefinden": 6580,
      "ĠAgenda": 6581,
      "ĠACP": 6582,
      "ĠFunktion": 6583,
      "ĠWorte": 6584,
      "ktive": 6585,
      "ĠNG": 6586,
      "Ġparts": 6587,
      "maÃŁen": 6588,
      "Ġbefassen": 6589,
      "ĠPrioritÃ¤t": 6590,
      "ĠStraÃŁburg": 6591,
      "apt": 6592,
      "ef": 6593,
      "feind": 6594,
      "Ãľber": 6595,
      "itation": 6596,
      "Ġzul": 6597,
      "Ġwithdra": 6598,
      "ival": 6599,
      "Ġmitt": 6600,
      "ĠJune": 6601,
      "cyc": 6602,
      "etheless": 6603,
      "riminalitÃ¤t": 6604,
      "Ġentspricht": 6605,
      "Ġbedarf": 6606,
      "ĠKontroll": 6607,
      "Ġleaders": 6608,
      "Ġhappened": 6609,
      "Program": 6610,
      "Ġconvinced": 6611,
      "Ġdiplomat": 6612,
      "oted": 6613,
      "Ġbad": 6614,
      "uls": 6615,
      "Ġforget": 6616,
      "verstanden": 6617,
      "ungsverfahren": 6618,
      "ĠSto": 6619,
      "Ġentit": 6620,
      "Ġgenug": 6621,
      "ĠEinrichtung": 6622,
      "Ġperfect": 6623,
      "forderung": 6624,
      "Ġfinancing": 6625,
      "Ġwishes": 6626,
      "ĠBetrug": 6627,
      "Ġremains": 6628,
      "kohol": 6629,
      "Ġbehandeln": 6630,
      "ĠfranzÃ¶sische": 6631,
      "Ġconstant": 6632,
      "Ġinfluen": 6633,
      "Ġjeweiligen": 6634,
      "ĠNahrungsmittel": 6635,
      "Commission": 6636,
      "Selbst": 6637,
      "ape": 6638,
      "inter": 6639,
      "reign": 6640,
      "Ġvotes": 6641,
      "Ġbeginnen": 6642,
      "llschaften": 6643,
      "Ġanders": 6644,
      "schÃ¤tz": 6645,
      "Ã¼rk": 6646,
      "ĠVerl": 6647,
      "Ġcompeten": 6648,
      "ĠJuni": 6649,
      "sec": 6650,
      "Ã¶rt": 6651,
      "hÃ¶ren": 6652,
      "abelling": 6653,
      "Ġfinanzielle": 6654,
      "ĠMai": 6655,
      "Ġderzeitigen": 6656,
      "sidiar": 6657,
      "ĠFestlegung": 6658,
      "GC": 6659,
      "Viel": 6660,
      "ĠEconomic": 6661,
      "ĠMacht": 6662,
      "Ġauszu": 6663,
      "Ġausreichend": 6664,
      "Ġchair": 6665,
      "rated": 6666,
      "Ġdecide": 6667,
      "Ġarm": 6668,
      "Ġrepla": 6669,
      "Ġgleiche": 6670,
      "Ġattack": 6671,
      "ĠArbeitslosigkeit": 6672,
      "Ġkommenden": 6673,
      "Ġverschiedene": 6674,
      "ĠTurkish": 6675,
      "ĠPersonal": 6676,
      "Ġrelationship": 6677,
      "Ġversich": 6678,
      "Ġsubsidiarity": 6679,
      "organisationen": 6680,
      "Question": 6681,
      "Last": 6682,
      "lament": 6683,
      "Ã¤um": 6684,
      "ĠPers": 6685,
      "Ġformer": 6686,
      "Ġverste": 6687,
      "Ġerfolgen": 6688,
      "ĠjÃ¤hr": 6689,
      "ĠschÃ¼tzen": 6690,
      "Ġapprec": 6691,
      "Ġgenuine": 6692,
      "Ġrecommendation": 6693,
      "Heute": 6694,
      "SchlieÃŁlich": 6695,
      "ball": 6696,
      "enophob": 6697,
      "ĠEreign": 6698,
      "ĠBos": 6699,
      "Third": 6700,
      "tritt": 6701,
      "Ġdepend": 6702,
      "ĠLa": 6703,
      "ikation": 6704,
      "Ġcompla": 6705,
      "ized": 6706,
      "Ġactual": 6707,
      "Ġ37": 6708,
      "ovis": 6709,
      "Ġhelfen": 6710,
      "Ã¼cksichtigung": 6711,
      "Ġcovered": 6712,
      "ĠSubsidiar": 6713,
      "ĠHÃ¶he": 6714,
      "NTER": 6715,
      "Nevertheless": 6716,
      "REG": 6717,
      "itious": 6718,
      "Ġsummit": 6719,
      "Ġgives": 6720,
      "Ġgranted": 6721,
      "eiter": 6722,
      "Ġwhom": 6723,
      "ĠHil": 6724,
      "ĠRea": 6725,
      "ĠInstrumente": 6726,
      "ĠBeginn": 6727,
      "Indeed": 6728,
      "ĠJahrh": 6729,
      "ĠKollegin": 6730,
      "Ġintroduce": 6731,
      "prÃ¼fung": 6732,
      "Ġearly": 6733,
      "ĠStabilitÃ¤t": 6734,
      "Ġdisaster": 6735,
      "ĠBeteiligung": 6736,
      "Ġburden": 6737,
      "ournal": 6738,
      "NTERREG": 6739,
      "mar": 6740,
      "to": 6741,
      "wing": 6742,
      "zusammen": 6743,
      "Ġbank": 6744,
      "Ġfri": 6745,
      "entwurf": 6746,
      "stimmung": 6747,
      "ĠIGC": 6748,
      "ĠRand": 6749,
      "Ġkl": 6750,
      "ĠgeÃ¤uÃŁ": 6751,
      "ĠStÃ¤rkung": 6752,
      "ĠBerÃ¼cksichtigung": 6753,
      "Ġprefer": 6754,
      "ĠDefin": 6755,
      "losen": 6756,
      "Ġattitude": 6757,
      "Ġgefunden": 6758,
      "stoffe": 6759,
      "Ġkeinerlei": 6760,
      "udgets": 6761,
      "Ġharm": 6762,
      "ĠMark": 6763,
      "Ã¶der": 6764,
      "Ġverme": 6765,
      "Ġusw": 6766,
      "Ġ1995": 6767,
      "achtungs": 6768,
      "Ġacceptable": 6769,
      "Ġappear": 6770,
      "Ġintroduced": 6771,
      "Ġadoption": 6772,
      "ĠgegenwÃ¤rtigen": 6773,
      "ĠAmerican": 6774,
      "Ġcontains": 6775,
      "ĠDemocrats": 6776,
      "ynam": 6777,
      "Ġlanguage": 6778,
      "Ġgratul": 6779,
      "ĠtÃ¤t": 6780,
      "anischen": 6781,
      "Ã¼ter": 6782,
      "ĠSach": 6783,
      "ĠlÃ¶sen": 6784,
      "Ġgek": 6785,
      "Ġconference": 6786,
      "ĠLEADER": 6787,
      "ĠTibet": 6788,
      "Ġsechs": 6789,
      "ifying": 6790,
      "Ġwilling": 6791,
      "Ġschl": 6792,
      "ĠProblemen": 6793,
      "Ġbesondere": 6794,
      "aufen": 6795,
      "Ġprovides": 6796,
      "ĠmÃ¶glicherweise": 6797,
      "Ġrecognised": 6798,
      "allel": 6799,
      "Ġincreasingly": 6800,
      "politischen": 6801,
      "ĠWachstum": 6802,
      "mÃ¶glichkeiten": 6803,
      "Ġsituations": 6804,
      "ari": 6805,
      "Ġaudi": 6806,
      "Ġforth": 6807,
      "ĠNiel": 6808,
      "Ġreserv": 6809,
      "Ġunternommen": 6810,
      "Ġpolitisch": 6811,
      "ĠUmfang": 6812,
      "Ġestablishment": 6813,
      "Ġconclude": 6814,
      "Ġcalling": 6815,
      "Ġklein": 6816,
      "ĠEinwander": 6817,
      "Ġbritischen": 6818,
      "Ġexercise": 6819,
      "iop": 6820,
      "punkte": 6821,
      "ancen": 6822,
      "Ã¤den": 6823,
      "icit": 6824,
      "ĠFaktor": 6825,
      "ĠRent": 6826,
      "urely": 6827,
      "angs": 6828,
      "linge": 6829,
      "Ġnoise": 6830,
      "ailed": 6831,
      "ĠKapital": 6832,
      "Ġprofess": 6833,
      "Ġaudiovis": 6834,
      "AR": 6835,
      "EU": 6836,
      "erzeug": 6837,
      "Ġehr": 6838,
      "Ġunable": 6839,
      "asten": 6840,
      "Ã¤ss": 6841,
      "halte": 6842,
      "Ġconsist": 6843,
      "ĠUmst": 6844,
      "ĠChamber": 6845,
      "Ġsays": 6846,
      "Ġeinzus": 6847,
      "Ġgestalten": 6848,
      "attle": 6849,
      "ĠIhren": 6850,
      "Ġbeteiligt": 6851,
      "grenzung": 6852,
      "Ġwollte": 6853,
      "ĠDeutschland": 6854,
      "vorsitz": 6855,
      "zut": 6856,
      "Ġthous": 6857,
      "Ġbein": 6858,
      "urance": 6859,
      "ĠPublic": 6860,
      "ĠBot": 6861,
      "ĠChrist": 6862,
      "Ġabzu": 6863,
      "ĠÃ¼berein": 6864,
      "schaftliche": 6865,
      "ĠSchw": 6866,
      "ĠGruppen": 6867,
      "Ġchocolate": 6868,
      "ierende": 6869,
      "ĠHauses": 6870,
      "Ġtechnischen": 6871,
      "ĠMilliar": 6872,
      "Ġhervorge": 6873,
      "Ġsubstances": 6874,
      "Ġschwerwie": 6875,
      "Ġimmediately": 6876,
      "iciency": 6877,
      "aution": 6878,
      "sk": 6879,
      "ypr": 6880,
      "Ġbeige": 6881,
      "Ġverfolgt": 6882,
      "ĠVergleich": 6883,
      "Ġstimme": 6884,
      "Ġvorlegen": 6885,
      "thiop": 6886,
      "Ġcomprehens": 6887,
      "lines": 6888,
      "trol": 6889,
      "Ġwants": 6890,
      "Ġgeschieht": 6891,
      "Ġlaws": 6892,
      "Ġreducing": 6893,
      "ĠLÃ¶sungen": 6894,
      "After": 6895,
      "DE": 6896,
      "unch": 6897,
      "Ġnennen": 6898,
      "Ġzut": 6899,
      "Ġkaum": 6900,
      "ĠUK": 6901,
      "Ġasking": 6902,
      "ĠZw": 6903,
      "ĠAnspruch": 6904,
      "ĠProced": 6905,
      "Ġhinzu": 6906,
      "Ġlaid": 6907,
      "ighbour": 6908,
      "ĠHinter": 6909,
      "ĠSprache": 6910,
      "Ġcompany": 6911,
      "ĠhÃ¶her": 6912,
      "Ġhigher": 6913,
      "Ġgarant": 6914,
      "ĠWÃ¤hrungs": 6915,
      "Ġenormous": 6916,
      "Ġalcohol": 6917,
      "Ander": 6918,
      "jÃ¤hr": 6919,
      "mÃ¶glich": 6920,
      "vi": 6921,
      "reck": 6922,
      "Ġniedr": 6923,
      "Ġcle": 6924,
      "geber": 6925,
      "ulated": 6926,
      "lying": 6927,
      "Ġerk": 6928,
      "Ġneighbour": 6929,
      "gruppe": 6930,
      "Ġconcentr": 6931,
      "Ġexper": 6932,
      "Ġadopting": 6933,
      "Ġhervorheben": 6934,
      "Ġsteps": 6935,
      "Ġstructures": 6936,
      "ĠErklÃ¤rungen": 6937,
      "Ġtasks": 6938,
      "COS": 6939,
      "Ġharmonisation": 6940,
      "ĠPeople": 6941,
      "ĠDrittlÃ¤ndern": 6942,
      "General": 6943,
      "ĠMinderheiten": 6944,
      "Ġanwesend": 6945,
      "Ġsafeguard": 6946,
      "ique": 6947,
      "rying": 6948,
      "ĠprÃ¤": 6949,
      "Ġbeings": 6950,
      "stimm": 6951,
      "try": 6952,
      "ĠHause": 6953,
      "ĠWunsch": 6954,
      "Ġexem": 6955,
      "ĠInfrastruktur": 6956,
      "ĠSchritte": 6957,
      "akter": 6958,
      "ĠGrÃ¼": 6959,
      "Ġsagt": 6960,
      "Ã¶ren": 6961,
      "Ġfactor": 6962,
      "hafte": 6963,
      "wÃ¤ss": 6964,
      "Ġideas": 6965,
      "Ġanderem": 6966,
      "Ġdefend": 6967,
      "Moreover": 6968,
      "ĠauÃŁerordentlich": 6969,
      "ĠProcedure": 6970,
      "prÃ¤sident": 6971,
      "wart": 6972,
      "chnung": 6973,
      "Ġsend": 6974,
      "Ġeinverstanden": 6975,
      "ĠMeth": 6976,
      "ĠINTERREG": 6977,
      "ĠGlobal": 6978,
      "respon": 6979,
      "Ġaufzu": 6980,
      "Ġentstehen": 6981,
      "Ġ26": 6982,
      "ccording": 6983,
      "Ġchance": 6984,
      "stag": 6985,
      "assungen": 6986,
      "Ġgenet": 6987,
      "Ġdebt": 6988,
      "ĠRechtsgrundlage": 6989,
      "fÃ¤llen": 6990,
      "afft": 6991,
      "ĠVorschlÃ¤gen": 6992,
      "Ġrichtige": 6993,
      "ĠWettbewerbsfÃ¤higkeit": 6994,
      "iÃŁbrauch": 6995,
      "ĠzustÃ¤ndigen": 6996,
      "ĠTerror": 6997,
      "Ġbecoming": 6998,
      "ĠWhite": 6999,
      "AN": 7000,
      "pft": 7001,
      "unsten": 7002,
      "ĠPet": 7003,
      "ktiven": 7004,
      "ungsan": 7005,
      "Ġcompens": 7006,
      "Ġgrenz": 7007,
      "Ġtransfer": 7008,
      "Ġeigene": 7009,
      "Ġandererseits": 7010,
      "Ġletter": 7011,
      "hÃ¶hung": 7012,
      "ĠListe": 7013,
      "Ġbuilding": 7014,
      "just": 7015,
      "mod": 7016,
      "oor": 7017,
      "wan": 7018,
      "Ã¡": 7019,
      "Ġx": 7020,
      "Ġbietet": 7021,
      "omÃ©": 7022,
      "ĠEing": 7023,
      "ĠMindest": 7024,
      "Ġklare": 7025,
      "Ġabgeschlossen": 7026,
      "Ġunterst": 7027,
      "Ġkonstru": 7028,
      "ĠMaÃŁnahme": 7029,
      "Ġsimpl": 7030,
      "Ġdrug": 7031,
      "ĠGesetzgebung": 7032,
      "ĠRepublik": 7033,
      "ĠLegal": 7034,
      "Ġethnic": 7035,
      "vorschlag": 7036,
      "Ġspezif": 7037,
      "Ġpenalt": 7038,
      "Ġadequate": 7039,
      "RO": 7040,
      "uz": 7041,
      "Ġdienen": 7042,
      "Ġtrag": 7043,
      "Ġwach": 7044,
      "Ġanimal": 7045,
      "imat": 7046,
      "Ġged": 7047,
      "hthal": 7048,
      "Ġheart": 7049,
      "ĠFÃ¤lle": 7050,
      "Ġambitious": 7051,
      "ĠEmpfehlungen": 7052,
      "Ġcriticism": 7053,
      "ĠBemerkung": 7054,
      "ĠVermittlungs": 7055,
      "ĠNielson": 7056,
      "Nur": 7057,
      "called": 7058,
      "iens": 7059,
      "ĠtÃ¼rk": 7060,
      "tete": 7061,
      "gements": 7062,
      "ĠPer": 7063,
      "ĠWaffen": 7064,
      "ĠVerstÃ¤nd": 7065,
      "ĠVerletz": 7066,
      "Ġmittel": 7067,
      "ĠAnliegen": 7068,
      "istisch": 7069,
      "oking": 7070,
      "Ġnationale": 7071,
      "prozeÃŁ": 7072,
      "ĠAbgeordneter": 7073,
      "Ġ90": 7074,
      "ĠBesorgnis": 7075,
      "Ġoperations": 7076,
      "Ġinformed": 7077,
      "ĠMarch": 7078,
      "ingdom": 7079,
      "ĠDrogen": 7080,
      "Drittens": 7081,
      "Some": 7082,
      "bor": 7083,
      "fÃ¤lt": 7084,
      "uk": 7085,
      "Ġaffairs": 7086,
      "Ġminister": 7087,
      "alien": 7088,
      "asse": 7089,
      "either": 7090,
      "Ġlabelling": 7091,
      "Ġformal": 7092,
      "ĠGra": 7093,
      "ĠErwÃ¤": 7094,
      "ĠRegulation": 7095,
      "stitute": 7096,
      "Ġzweifellos": 7097,
      "ĠProgramms": 7098,
      "Ġmoral": 7099,
      "Ġcloser": 7100,
      "Ġaddressed": 7101,
      "Ġenterpr": 7102,
      "ĠGeschichte": 7103,
      "Ġbetrachtet": 7104,
      "ĠAuditors": 7105,
      "Ġfulfil": 7106,
      "Ġvermeiden": 7107,
      "ser": 7108,
      "Ġhar": 7109,
      "ĠPo": 7110,
      "Ġrele": 7111,
      "Ġumwelt": 7112,
      "Ġrecord": 7113,
      "Ġhandeln": 7114,
      "acter": 7115,
      "ventionen": 7116,
      "Anfrage": 7117,
      "scheinlich": 7118,
      "ĠsÃ¤mtliche": 7119,
      "lamentar": 7120,
      "Thirdly": 7121,
      "No": 7122,
      "Ġdimension": 7123,
      "gef": 7124,
      "Ġbeabsicht": 7125,
      "amer": 7126,
      "gesichts": 7127,
      "ĠSchokol": 7128,
      "Ã¤renz": 7129,
      "ĠLeist": 7130,
      "Ġoffice": 7131,
      "Unfortunately": 7132,
      "Ġcompetit": 7133,
      "010": 7134,
      "Ã¤rkten": 7135,
      "ĠBestand": 7136,
      "ĠGrÃ¼nde": 7137,
      "Ġbenefits": 7138,
      "Ġweeks": 7139,
      "ĠGewÃ¤hr": 7140,
      "Ġeasy": 7141,
      "Ġvehicles": 7142,
      "kret": 7143,
      "wiesen": 7144,
      "enary": 7145,
      "orre": 7146,
      "Ġmand": 7147,
      "ĠKingdom": 7148,
      "rÃ¤sent": 7149,
      "ĠBereit": 7150,
      "Ġpositions": 7151,
      "Ġinvolve": 7152,
      "Ġreasonable": 7153,
      "Ġsensitive": 7154,
      "ĠHealth": 7155,
      "kosten": 7156,
      "ĠNormen": 7157,
      "ĠMÃ¤rz": 7158,
      "ĠBeobachtungs": 7159,
      "ĠWillen": 7160,
      "ĠPrivat": 7161,
      "AP": 7162,
      "dle": 7163,
      "kÃ¼nd": 7164,
      "ollen": 7165,
      "wahl": 7166,
      "ino": 7167,
      "ĠeinschlieÃŁlich": 7168,
      "Ġstock": 7169,
      "ĠReformen": 7170,
      "ĠMitarbeit": 7171,
      "Ġgewiss": 7172,
      "Ġhohe": 7173,
      "Ġplenary": 7174,
      "Ġletzte": 7175,
      "ĠÃ¤uÃŁern": 7176,
      "ĠSecurity": 7177,
      "Ġignor": 7178,
      "nimmt": 7179,
      "sized": 7180,
      "ĠfÃ¤": 7181,
      "ĠSpe": 7182,
      "Ġzudem": 7183,
      "Ġerweit": 7184,
      "Ġrasch": 7185,
      "ĠVerbot": 7186,
      "Ġresponsibilities": 7187,
      "struktur": 7188,
      "Ã¼ndet": 7189,
      "Ġabsolut": 7190,
      "ĠHohen": 7191,
      "Ġnetwork": 7192,
      "Ġportugiesische": 7193,
      "ĠerfÃ¼llt": 7194,
      "Ġmethods": 7195,
      "Ġbehaup": 7196,
      "ĠJanuary": 7197,
      "Betrifft": 7198,
      "Subject": 7199,
      "Alle": 7200,
      "uerung": 7201,
      "osen": 7202,
      "ĠVerÃ¤nderungen": 7203,
      "Ã¤nglich": 7204,
      "ungsver": 7205,
      "ĠausdrÃ¼cklich": 7206,
      "ĠVorhaben": 7207,
      "ollar": 7208,
      "werten": 7209,
      "lÃ¤ut": 7210,
      "ĠBedenken": 7211,
      "Ġblock": 7212,
      "ĠWorten": 7213,
      "Ġemphasise": 7214,
      "greement": 7215,
      "ffizien": 7216,
      "According": 7217,
      "afr": 7218,
      "eg": 7219,
      "Ġwider": 7220,
      "orted": 7221,
      "orgt": 7222,
      "uropa": 7223,
      "Ġverwendet": 7224,
      "Ġjem": 7225,
      "ĠStimme": 7226,
      "Ã¼nden": 7227,
      "Ġoutcome": 7228,
      "ĠgewÃ¤hl": 7229,
      "ĠÃľberzeug": 7230,
      "ĠFormen": 7231,
      "ampag": 7232,
      "Ġautomat": 7233,
      "ĠSpain": 7234,
      "ĠAlban": 7235,
      "ĠFischler": 7236,
      "Ġhappy": 7237,
      "Ġstrategic": 7238,
      "Ġcommunities": 7239,
      "zwischen": 7240,
      "Ġaufgefordert": 7241,
      "ĠItaly": 7242,
      "Ġsurpr": 7243,
      "Ġrailway": 7244,
      "Ġcharacter": 7245,
      "freiheit": 7246,
      "Commissioner": 7247,
      "Ġxenophob": 7248,
      "lant": 7249,
      "ente": 7250,
      "ĠSen": 7251,
      "imately": 7252,
      "Ġveran": 7253,
      "inding": 7254,
      "Ġsuperv": 7255,
      "Ġkomme": 7256,
      "ĠgrÃ¶ÃŁten": 7257,
      "abilitÃ¤t": 7258,
      "ĠKontrollen": 7259,
      "Ġstatements": 7260,
      "Ġplanning": 7261,
      "Ġinfrastructure": 7262,
      "Ġinfluence": 7263,
      "ior": 7264,
      "Ġmist": 7265,
      "ĠAd": 7266,
      "scht": 7267,
      "ĠKu": 7268,
      "steller": 7269,
      "Ġ27": 7270,
      "ĠWege": 7271,
      "iode": 7272,
      "ĠAmerica": 7273,
      "ĠItalien": 7274,
      "ĠWohl": 7275,
      "ĠmÃ¼ÃŁte": 7276,
      "ĠGarant": 7277,
      "Ġkonzentrieren": 7278,
      "ĠgrenzÃ¼ber": 7279,
      "War": 7280,
      "ĠFÃ¼hr": 7281,
      "ĠVoll": 7282,
      "ĠausschlieÃŁlich": 7283,
      "Ġenfor": 7284,
      "Ġfinde": 7285,
      "Ġevidence": 7286,
      "Why": 7287,
      "Ġnunmehr": 7288,
      "hebung": 7289,
      "Ġentwickelt": 7290,
      "leiten": 7291,
      "Ġrecommendations": 7292,
      "Reg": 7293,
      "ĠstÃ¤ndig": 7294,
      "Ġeingereicht": 7295,
      "Ġtourism": 7296,
      "Ġangeb": 7297,
      "ĠPunkten": 7298,
      "ragt": 7299,
      "ĠDimension": 7300,
      "ungsbe": 7301,
      "Ġrig": 7302,
      "ĠNRO": 7303,
      "ĠVorgehen": 7304,
      "Ġsupporting": 7305,
      "ĠChance": 7306,
      "ĠWeiÃŁb": 7307,
      "Ġelements": 7308,
      "Ġachieving": 7309,
      "ĠerwÃ¤hn": 7310,
      "ĠPalest": 7311,
      "Ġdiskutiert": 7312,
      "ĠMinutes": 7313,
      "ĠBeschlÃ¼sse": 7314,
      "Ġadvantage": 7315,
      "ĠÃľberwachung": 7316,
      "Ġcompetitiveness": 7317,
      "po": 7318,
      "Ã³": 7319,
      "rep": 7320,
      "ĠMos": 7321,
      "schm": 7322,
      "laus": 7323,
      "enswert": 7324,
      "Ġamt": 7325,
      "Ġtransp": 7326,
      "handels": 7327,
      "ĠMex": 7328,
      "Ġpromoting": 7329,
      "Ġdeliver": 7330,
      "Ġprior": 7331,
      "ĠgewÃ¤hrleistet": 7332,
      "Ġcontinuing": 7333,
      "ĠunabhÃ¤ngig": 7334,
      "ĠBemerkungen": 7335,
      "Ġaktiv": 7336,
      "Ġmill": 7337,
      "ĠEv": 7338,
      "ĠBlick": 7339,
      "Ġjetz": 7340,
      "Ġvorzulegen": 7341,
      "uchen": 7342,
      "ĠErhÃ¶hung": 7343,
      "Ġbetrachten": 7344,
      "Ġgesetz": 7345,
      "Ġmoder": 7346,
      "ĠChancen": 7347,
      "Ġpermit": 7348,
      "Ġweshalb": 7349,
      "Ġbesonderen": 7350,
      "Ġanderes": 7351,
      "ĠZweck": 7352,
      "Ġcarefully": 7353,
      "Ġunterschiedlichen": 7354,
      "ĠDienstleistungen": 7355,
      "Ġfigures": 7356,
      "ffizienz": 7357,
      "Tod": 7358,
      "onom": 7359,
      "Ġfallen": 7360,
      "uses": 7361,
      "ĠMc": 7362,
      "ĠAuss": 7363,
      "ĠBeruf": 7364,
      "Ġamer": 7365,
      "Ġliability": 7366,
      "Ġgoal": 7367,
      "Ġ31": 7368,
      "Ġherz": 7369,
      "richten": 7370,
      "richtlinie": 7371,
      "Ġcars": 7372,
      "Ġcritical": 7373,
      "Ġkonkret": 7374,
      "Ġstructure": 7375,
      "ĠGreek": 7376,
      "ĠzusÃ¤tzliche": 7377,
      "Ġfacilit": 7378,
      "ĠJanuar": 7379,
      "ĠpersÃ¶nlich": 7380,
      "ĠPrÃ¼fung": 7381,
      "ĠEtik": 7382,
      "IFE": 7383,
      "ĠWeiÃŁbuch": 7384,
      "Zur": 7385,
      "ature": 7386,
      "ĠSinn": 7387,
      "ĠVerfahrens": 7388,
      "ĠNiederl": 7389,
      "Ġserve": 7390,
      "Ġdelighted": 7391,
      "Ġrepresentative": 7392,
      "ĠRedner": 7393,
      "levision": 7394,
      "ĠerklÃ¤ren": 7395,
      "ĠPflicht": 7396,
      "Ġsinnvoll": 7397,
      "ĠMilliarden": 7398,
      "Wel": 7399,
      "rt": 7400,
      "itet": 7401,
      "Ġec": 7402,
      "ĠFlexib": 7403,
      "Ġlisten": 7404,
      "Ġgebe": 7405,
      "Ġdeg": 7406,
      "ensus": 7407,
      "ĠRealitÃ¤t": 7408,
      "Ġinterpret": 7409,
      "Ġgewisse": 7410,
      "ĠÃľberlegungen": 7411,
      "Ġnatur": 7412,
      "Ġbegrenz": 7413,
      "Ġimproved": 7414,
      "Ġsigned": 7415,
      "COM": 7416,
      "Ġoriginal": 7417,
      "Ġvisit": 7418,
      "Leider": 7419,
      "Gleichzeitig": 7420,
      "ĠTodes": 7421,
      "strÃ¶m": 7422,
      "ĠBeobachtungsstelle": 7423,
      "sbe": 7424,
      "ĠwÃ¼nschen": 7425,
      "itory": 7426,
      "Ġbeef": 7427,
      "ĠAgreement": 7428,
      "Ġgesellschaft": 7429,
      "ĠIran": 7430,
      "ĠFonds": 7431,
      "ĠInst": 7432,
      "rÃ¤ge": 7433,
      "Ġpolitischer": 7434,
      "Ġdennoch": 7435,
      "Angesichts": 7436,
      "Ġinteresting": 7437,
      "Ġrepresents": 7438,
      "Ġreduced": 7439,
      "ĠDienste": 7440,
      "Ġobligations": 7441,
      "Ġgradu": 7442,
      "Ġflexibility": 7443,
      "Ġconduct": 7444,
      "ĠNGOs": 7445,
      "onic": 7446,
      "Ġcame": 7447,
      "astr": 7448,
      "lared": 7449,
      "Ġausges": 7450,
      "ĠSchwe": 7451,
      "samm": 7452,
      "Ġtransition": 7453,
      "Ġdramat": 7454,
      "Ġparlamentar": 7455,
      "ĠunterstÃ¼tze": 7456,
      "Ġappeal": 7457,
      "ĠauÃŁerhalb": 7458,
      "Ġvorgesehenen": 7459,
      "Ġfalls": 7460,
      "ĠGerichtshof": 7461,
      "ĠBildungs": 7462,
      "ĠDefinition": 7463,
      "NS": 7464,
      "pie": 7465,
      "spect": 7466,
      "zure": 7467,
      "erous": 7468,
      "ather": 7469,
      "ĠMobil": 7470,
      "oler": 7471,
      "iddle": 7472,
      "Ġdesire": 7473,
      "ĠLat": 7474,
      "Ġattend": 7475,
      "beauftrag": 7476,
      "Ġcompl": 7477,
      "tendlich": 7478,
      "Ġequality": 7479,
      "Ġlimits": 7480,
      "ĠkÃ¼nftigen": 7481,
      "ĠFrid": 7482,
      "Dennoch": 7483,
      "chanisms": 7484,
      "Ġconsultation": 7485,
      "Ġcomprehensive": 7486,
      "ĠGlobalisierung": 7487,
      "AL": 7488,
      "Vert": 7489,
      "des": 7490,
      "Ġtest": 7491,
      "Ã¤cht": 7492,
      "otion": 7493,
      "endes": 7494,
      "Ġvorge": 7495,
      "the": 7496,
      "head": 7497,
      "Ġfreien": 7498,
      "Ġapproval": 7499,
      "Ġakzeptiert": 7500,
      "Ġgegebenen": 7501,
      "ĠVoraussetzung": 7502,
      "ĠEngagement": 7503,
      "ĠRisiko": 7504,
      "Ġevaluation": 7505,
      "alyse": 7506,
      "Today": 7507,
      "21": 7508,
      "Even": 7509,
      "Pres": 7510,
      "ZB": 7511,
      "iable": 7512,
      "reib": 7513,
      "Ġpubl": 7514,
      "Ġtold": 7515,
      "ĠbetrÃ¤cht": 7516,
      "ĠAgricult": 7517,
      "Ġverteid": 7518,
      "Ġaufzunehmen": 7519,
      "ateful": 7520,
      "Ġmechanisms": 7521,
      "Ġadapt": 7522,
      "Ġconsensus": 7523,
      "Ġspent": 7524,
      "Ġdebates": 7525,
      "Ġgerne": 7526,
      "lexible": 7527,
      "Ġintroduction": 7528,
      "Ġterritory": 7529,
      "Ġfamilies": 7530,
      "COD": 7531,
      "Ġzugunsten": 7532,
      "ĠFehler": 7533,
      "Ġentitled": 7534,
      "border": 7535,
      "Durch": 7536,
      "kungen": 7537,
      "miss": 7538,
      "Ġdre": 7539,
      "Ġehem": 7540,
      "ĠanschlieÃŁen": 7541,
      "ĠhÃ¤lt": 7542,
      "Ġrech": 7543,
      "Ġrejected": 7544,
      "Ġlines": 7545,
      "Ġerr": 7546,
      "ĠDes": 7547,
      "ustom": 7548,
      "ĠSchaden": 7549,
      "ĠAbfall": 7550,
      "ĠnachdrÃ¼cklich": 7551,
      "ĠGef": 7552,
      "nahm": 7553,
      "Ġtechnische": 7554,
      "ĠÃ¶sterreich": 7555,
      "ĠFreiz": 7556,
      "Ġintends": 7557,
      "Ġhistory": 7558,
      "ĠRisiken": 7559,
      "Ġconstruction": 7560,
      "Ġbetreffenden": 7561,
      "za": 7562,
      "estens": 7563,
      "ales": 7564,
      "Ġcal": 7565,
      "Ġgrie": 7566,
      "Ġvorange": 7567,
      "ĠNutzen": 7568,
      "Ġmag": 7569,
      "Ġappar": 7570,
      "ĠMensch": 7571,
      "Ġseries": 7572,
      "ilitÃ¤r": 7573,
      "Ġpersons": 7574,
      "ĠBevÃ¶lkerungs": 7575,
      "Ġzahlreichen": 7576,
      "Ġchallenges": 7577,
      "diction": 7578,
      "Ġdistribution": 7579,
      "ĠWissenschaft": 7580,
      "Ġscheme": 7581,
      "ĠÃ¼brigens": 7582,
      "By": 7583,
      "cceed": 7584,
      "Ġtreten": 7585,
      "iste": 7586,
      "Ġerfahren": 7587,
      "Ġerkennen": 7588,
      "ĠZunÃ¤chst": 7589,
      "ittees": 7590,
      "ĠBew": 7591,
      "ĠSchwer": 7592,
      "Ġmanaged": 7593,
      "Ġconcrete": 7594,
      "ĠUmweltschutz": 7595,
      "ĠbekrÃ¤ft": 7596,
      "Ġsucceed": 7597,
      "Ã¼ndung": 7598,
      "Ġcalls": 7599,
      "Ġguarantees": 7600,
      "Ġhervorragen": 7601,
      "Although": 7602,
      "Ġopposition": 7603,
      "Darum": 7604,
      "ĠVoraussetzungen": 7605,
      "Ġspeziell": 7606,
      "ĠKommissionsmitglied": 7607,
      "Ġdise": 7608,
      "ĠMadam": 7609,
      "olon": 7610,
      "Ġconciliation": 7611,
      "Ġneben": 7612,
      "ĠStreit": 7613,
      "ĠUnions": 7614,
      "ikations": 7615,
      "ĠAnfragen": 7616,
      "Ġaussprechen": 7617,
      "oreign": 7618,
      "Ġincome": 7619,
      "Ġotherwise": 7620,
      "ĠKonsequ": 7621,
      "pruch": 7622,
      "Ġmonopol": 7623,
      "ĠOrd": 7624,
      "Ġfloor": 7625,
      "Ġshows": 7626,
      "ypern": 7627,
      "ĠVerteidigung": 7628,
      "embly": 7629,
      "ĠEinfluÃŁ": 7630,
      "ustausch": 7631,
      "Ist": 7632,
      "systeme": 7633,
      "inens": 7634,
      "Ġmiss": 7635,
      "rochen": 7636,
      "ĠWand": 7637,
      "Ġsele": 7638,
      "Ġsehe": 7639,
      "Ġgenere": 7640,
      "Ġefficiency": 7641,
      "ĠUnterschiede": 7642,
      "Ġdifferences": 7643,
      "ĠLandwirte": 7644,
      "Ġputting": 7645,
      "Ġattach": 7646,
      "ĠAlkohol": 7647,
      "Ġclass": 7648,
      "Ġbalanced": 7649,
      "Ġbilden": 7650,
      "Ġcentury": 7651,
      "Ġgenerally": 7652,
      "ĠHerausforderung": 7653,
      "ĠKohÃ¤renz": 7654,
      "yprus": 7655,
      "mm": 7656,
      "Ġthre": 7657,
      "ĠEZB": 7658,
      "Ġdeleg": 7659,
      "ĠLÃ¤rm": 7660,
      "Ġcoll": 7661,
      "ĠAnteil": 7662,
      "Ġenor": 7663,
      "ĠMitglieds": 7664,
      "Ġgrateful": 7665,
      "Ġrelated": 7666,
      "Ġoffiz": 7667,
      "Ġincludes": 7668,
      "geleitet": 7669,
      "Ġoperators": 7670,
      "Ġrecognition": 7671,
      "Ã¤stinens": 7672,
      "ĠVielfalt": 7673,
      "Ġdegree": 7674,
      "Con": 7675,
      "Seit": 7676,
      "kolog": 7677,
      "nel": 7678,
      "vent": 7679,
      "Ġbezieht": 7680,
      "Ġeinf": 7681,
      "ĠSystems": 7682,
      "Ġcoup": 7683,
      "Ġrange": 7684,
      "Ġcompar": 7685,
      "Ġperman": 7686,
      "Many": 7687,
      "ĠBarn": 7688,
      "Ġerneuer": 7689,
      "ĠFlÃ¼chtlinge": 7690,
      "Ġpatent": 7691,
      "Ġverantwortlich": 7692,
      "Ġdesigned": 7693,
      "ĠRevision": 7694,
      "Ġimpossible": 7695,
      "Warum": 7696,
      "fleisch": 7697,
      "ints": 7698,
      "Ġsetzt": 7699,
      "reen": 7700,
      "Ġbeide": 7701,
      "igne": 7702,
      "ĠForeign": 7703,
      "ĠRo": 7704,
      "ĠlÃ¤nger": 7705,
      "issens": 7706,
      "Ġsoeben": 7707,
      "samkeit": 7708,
      "Ġnationaler": 7709,
      "ĠMonate": 7710,
      "Ġcompetitive": 7711,
      "Ġtaxation": 7712,
      "Ġbraucht": 7713,
      "Ġaims": 7714,
      "Ġprecaution": 7715,
      "tellten": 7716,
      "Ġuneing": 7717,
      "Ġcoherence": 7718,
      "ĠEtikett": 7719,
      "Ġehemal": 7720,
      "Ġgriech": 7721,
      "04": 7722,
      "oke": 7723,
      "oÃŁen": 7724,
      "Ġwit": 7725,
      "Ġpun": 7726,
      "Ġeinbezogen": 7727,
      "ĠPap": 7728,
      "Ġgave": 7729,
      "schÃ¤d": 7730,
      "Ġkomp": 7731,
      "Ġerfre": 7732,
      "oples": 7733,
      "Ġausger": 7734,
      "ĠProz": 7735,
      "Ġregime": 7736,
      "Ġpeoples": 7737,
      "Ġknows": 7738,
      "ĠSozialdem": 7739,
      "Ġdemokratische": 7740,
      "ĠGreens": 7741,
      "ĠSektoren": 7742,
      "Ġwiederholen": 7743,
      "Ã¼rok": 7744,
      "ĠVerhÃ¤ltnis": 7745,
      "Every": 7746,
      "KOM": 7747,
      "iate": 7748,
      "inational": 7749,
      "Ġtro": 7750,
      "orate": 7751,
      "ĠSa": 7752,
      "ĠKÃ¼": 7753,
      "ĠCyprus": 7754,
      "Ġgezeigt": 7755,
      "Ġweap": 7756,
      "ifall": 7757,
      "Ġenj": 7758,
      "Ġconsolid": 7759,
      "Ġtelevision": 7760,
      "ĠAufbau": 7761,
      "ruh": 7762,
      "Ġinvolves": 7763,
      "Ġglauben": 7764,
      "Ġdeli": 7765,
      "ĠAfrican": 7766,
      "Ġstarting": 7767,
      "Ġglobalisation": 7768,
      "Ġdetailed": 7769,
      "Ġannoun": 7770,
      "Ġunterschiedliche": 7771,
      "Ġpositiven": 7772,
      "Ġdemonst": 7773,
      "Ġconstructive": 7774,
      "Ġemploye": 7775,
      "ĠKontin": 7776,
      "Ġtackle": 7777,
      "Ã¼gigkeit": 7778,
      "Ġreagieren": 7779,
      "ĠuneingeschrÃ¤n": 7780,
      "mon": 7781,
      "Ġvir": 7782,
      "Ġvig": 7783,
      "ĠIC": 7784,
      "Ġauff": 7785,
      "ĠKat": 7786,
      "ĠCent": 7787,
      "ĠChe": 7788,
      "ĠerlÃ¤ut": 7789,
      "ĠLIFE": 7790,
      "ĠTagen": 7791,
      "Ġras": 7792,
      "Ġshar": 7793,
      "ĠAnforderungen": 7794,
      "seh": 7795,
      "uropÃ¤ischen": 7796,
      "problem": 7797,
      "Ġinternationaler": 7798,
      "Ã¤lter": 7799,
      "Ġexpression": 7800,
      "Ġcondition": 7801,
      "ĠECB": 7802,
      "Ġerzielen": 7803,
      "Ġderartige": 7804,
      "ĠPartnerschaft": 7805,
      "chanismen": 7806,
      "Ġexplain": 7807,
      "opoul": 7808,
      "mission": 7809,
      "sman": 7810,
      "Ġtw": 7811,
      "ĠKindern": 7812,
      "ĠBerat": 7813,
      "sibly": 7814,
      "ringlichkeit": 7815,
      "Ġsolcher": 7816,
      "ologie": 7817,
      "fÃ¼hl": 7818,
      "Ġminorities": 7819,
      "Einige": 7820,
      "Ġmeetings": 7821,
      "Ġadvoc": 7822,
      "igration": 7823,
      "zufÃ¼gen": 7824,
      "ĠFreiheiten": 7825,
      "Ġumfassende": 7826,
      "ĠGedanken": 7827,
      "Ġordnungs": 7828,
      "Ġnahe": 7829,
      "Ġdiversity": 7830,
      "Ġthreaten": 7831,
      "Ġenjoy": 7832,
      "fiz": 7833,
      "enze": 7834,
      "Ġunbe": 7835,
      "urr": 7836,
      "Ġreaction": 7837,
      "schn": 7838,
      "schw": 7839,
      "ĠKinn": 7840,
      "Ġforced": 7841,
      "ĠZypern": 7842,
      "ĠInsel": 7843,
      "ĠAnp": 7844,
      "Ġadmit": 7845,
      "ĠOb": 7846,
      "heim": 7847,
      "Ġimpression": 7848,
      "Ġproposing": 7849,
      "lÃ¤ge": 7850,
      "Ġsuchen": 7851,
      "ĠÃľberprÃ¼fung": 7852,
      "Ġgelungen": 7853,
      "Ġlost": 7854,
      "Ġeinger": 7855,
      "ĠProdukte": 7856,
      "Ġterritor": 7857,
      "Ġsupplement": 7858,
      "ĠGleichgewicht": 7859,
      "Ġcombating": 7860,
      "ĠHerausforderungen": 7861,
      "Ġausgezeichneten": 7862,
      "ĠBosn": 7863,
      "Ġprofessional": 7864,
      "ĠgrenzÃ¼berschreit": 7865,
      "ĠFreizÃ¼gigkeit": 7866,
      "ĠKinnock": 7867,
      "Am": 7868,
      "dac": 7869,
      "va": 7870,
      "ender": 7871,
      "engen": 7872,
      "esten": 7873,
      "itable": 7874,
      "Ġsession": 7875,
      "Ġbureau": 7876,
      "leun": 7877,
      "ĠEffizienz": 7878,
      "ilst": 7879,
      "ĠWall": 7880,
      "Ġheav": 7881,
      "Ġ29": 7882,
      "Ġproposes": 7883,
      "front": 7884,
      "Ġarr": 7885,
      "Ġwelcom": 7886,
      "Ġweiterer": 7887,
      "Ġrealise": 7888,
      "Ġgelangen": 7889,
      "Ġwenigen": 7890,
      "struction": 7891,
      "sequent": 7892,
      "ĠdÃ¼rfte": 7893,
      "Ġintegrated": 7894,
      "Ġhappening": 7895,
      ")).": 7896,
      "Ġclaim": 7897,
      "ĠRussia": 7898,
      "Ġpackage": 7899,
      "Trotz": 7900,
      "Ġbieten": 7901,
      "Ġmob": 7902,
      "olz": 7903,
      "ĠKlar": 7904,
      "Ġfordert": 7905,
      "ĠkÃ¼rz": 7906,
      "ĠLauf": 7907,
      "Ġstabil": 7908,
      "atever": 7909,
      "qualitÃ¤t": 7910,
      "Ġability": 7911,
      "ĠAngriff": 7912,
      "ublin": 7913,
      "anging": 7914,
      "licherweise": 7915,
      "Ġdefined": 7916,
      "Ġeingegangen": 7917,
      "ĠStrukturen": 7918,
      "Ġcauses": 7919,
      "ĠUrs": 7920,
      "ĠGreen": 7921,
      "Ġfailure": 7922,
      "Ġbelong": 7923,
      "ĠIrak": 7924,
      "ĠSpanien": 7925,
      "ĠbeschÃ¤ftigen": 7926,
      "ĠWiderspruch": 7927,
      "ĠPalestin": 7928,
      "Den": 7929,
      "Ge": 7930,
      "cent": 7931,
      "Ġannehmen": 7932,
      "ĠAuft": 7933,
      "osal": 7934,
      "anda": 7935,
      "Ġergeben": 7936,
      "akte": 7937,
      "Ġworked": 7938,
      "reichung": 7939,
      "Ġletzt": 7940,
      "Ġletztendlich": 7941,
      "ĠHerzen": 7942,
      "sequently": 7943,
      "Ġparliaments": 7944,
      "Ġqualifiz": 7945,
      "ĠSpanish": 7946,
      "Ġirgendein": 7947,
      "Ġquotas": 7948,
      "ĠGrÃ¼nen": 7949,
      "cement": 7950,
      "Ġtarge": 7951,
      "rel": 7952,
      "Ġflexible": 7953,
      "Ġunc": 7954,
      "imals": 7955,
      "Ġreden": 7956,
      "ĠKre": 7957,
      "Ġones": 7958,
      "Ġbestimmt": 7959,
      "Ġrequested": 7960,
      "ĠÃ¶kolog": 7961,
      "ĠArbeitsmarkt": 7962,
      "Ġseitens": 7963,
      "ĠzurÃ¼ckge": 7964,
      "Ġappears": 7965,
      "Ġoppos": 7966,
      "Ġmultinational": 7967,
      "Ġniemand": 7968,
      "Ġobligation": 7969,
      "stellungen": 7970,
      "ĠTechnologien": 7971,
      "Ġunmittelbar": 7972,
      "Ġarrangements": 7973,
      "ĠSchokolade": 7974,
      "ĠÃľberzeugung": 7975,
      "Ġnaturally": 7976,
      "-,": 7977,
      "AT": 7978,
      "rupt": 7979,
      "uin": 7980,
      "ermaÃŁen": 7981,
      "Ġsw": 7982,
      "stat": 7983,
      "ĠMand": 7984,
      "ĠGM": 7985,
      "Ġdauer": 7986,
      "Ġsovere": 7987,
      "ĠDÃ¤n": 7988,
      "Ġneues": 7989,
      "ĠstÃ¤r": 7990,
      "ĠZimbabwe": 7991,
      "ĠRechnung": 7992,
      "ĠSchengen": 7993,
      "uell": 7994,
      "ĠVorred": 7995,
      "Ġmanage": 7996,
      "Ġbetreffend": 7997,
      "ĠdurchzufÃ¼hren": 7998,
      "ĠOsten": 7999,
      "Ġspok": 8000,
      "Ġinspect": 8001,
      "Ġwelch": 8002,
      "Ġadded": 8003,
      "ĠgefÃ¶r": 8004,
      "Ġvorgeschlagene": 8005,
      "ĠLiberalen": 8006,
      "Ġborder": 8007,
      "Ġpurposes": 8008,
      "ĠvollstÃ¤ndig": 8009,
      "Ġoccasions": 8010,
      "Ġkulturellen": 8011,
      "ĠZentralbank": 8012,
      "Ġgratulieren": 8013,
      "Ġforthcoming": 8014,
      "Ã³n": 8015,
      "Ġsovereign": 8016,
      "App": 8017,
      "Ġ0": 8018,
      "inner": 8019,
      "oning": 8020,
      "Ġcustom": 8021,
      "Ġzeit": 8022,
      "ĠSign": 8023,
      "Ġregel": 8024,
      "ĠBen": 8025,
      "ĠBÃ¶": 8026,
      "ĠRa": 8027,
      "ĠGel": 8028,
      "ĠGlaub": 8029,
      "ĠerÃ¶r": 8030,
      "ĠVerzÃ¶": 8031,
      "ports": 8032,
      "Ġentschlossen": 8033,
      "fÃ¼hrten": 8034,
      "Ġseeking": 8035,
      "gendes": 8036,
      "Ġapprove": 8037,
      "Ġelected": 8038,
      "Ġcontributions": 8039,
      "ĠIndustr": 8040,
      "Ġgrowing": 8041,
      "periode": 8042,
      "Ġerfolgreich": 8043,
      "Ġabstimmen": 8044,
      "ugoslaw": 8045,
      "Ġtypes": 8046,
      "Ġausgesprochen": 8047,
      "commun": 8048,
      "hib": 8049,
      "tehen": 8050,
      "Ġangebracht": 8051,
      "Ġisol": 8052,
      "Ã¶hn": 8053,
      "ĠHoch": 8054,
      "ĠDringlichkeit": 8055,
      "Ġvorgenommen": 8056,
      "Ã¼nde": 8057,
      "Ġpolitic": 8058,
      "haften": 8059,
      "Ġverbessert": 8060,
      "Ġexamine": 8061,
      "ĠKonflik": 8062,
      "Ġsogenannten": 8063,
      "Ġmaximum": 8064,
      "Ġmilk": 8065,
      "Dann": 8066,
      "Ġachten": 8067,
      "Ã¤hlen": 8068,
      "ĠAktion": 8069,
      "ĠBan": 8070,
      "Ġsofort": 8071,
      "Ġvert": 8072,
      "ivity": 8073,
      "Ġthereby": 8074,
      "appe": 8075,
      "Ġsupports": 8076,
      "Ġcitizen": 8077,
      "sucht": 8078,
      "reitet": 8079,
      "Ġ2003": 8080,
      "Ġangeht": 8081,
      "ĠAltern": 8082,
      "kommt": 8083,
      "Ġbenach": 8084,
      "Ġdrawing": 8085,
      "Ġparticipate": 8086,
      "Ġsubsidies": 8087,
      "Ġwahrscheinlich": 8088,
      "ĠWirklichkeit": 8089,
      "ĠTrade": 8090,
      "Ġtimet": 8091,
      "sumer": 8092,
      "ĠVorbereitung": 8093,
      "ĠAgriculture": 8094,
      "Ã¼rokrat": 8095,
      "craft": 8096,
      "yer": 8097,
      "Ġdon": 8098,
      "Ġanimals": 8099,
      "Ġhor": 8100,
      "Ġtoler": 8101,
      "Ġeinig": 8102,
      "ĠFreit": 8103,
      "Ġerfolgt": 8104,
      "Ġseien": 8105,
      "ford": 8106,
      "Ġlegen": 8107,
      "Ġvorbereit": 8108,
      "Ġcomply": 8109,
      "Ġpresence": 8110,
      "selben": 8111,
      "Ġerfordert": 8112,
      "Ġnonetheless": 8113,
      "Ġtechnologies": 8114,
      "Ġopposed": 8115,
      "Ġindividuals": 8116,
      "Ġsupply": 8117,
      "Ġqualified": 8118,
      "Ġchoice": 8119,
      "ĠerhÃ¶hen": 8120,
      "Ġtempor": 8121,
      "Ġhours": 8122,
      "Ġschwerwiegen": 8123,
      "CNS": 8124,
      "itage": 8125,
      "emark": 8126,
      "ĠKriminalitÃ¤t": 8127,
      "Ġlate": 8128,
      "ĠgeprÃ¼ft": 8129,
      "Ġvertra": 8130,
      "ĠWie": 8131,
      "ĠDublin": 8132,
      "ĠVerhe": 8133,
      "ugnisse": 8134,
      "Ġvorbe": 8135,
      "schau": 8136,
      "ĠPresse": 8137,
      "ĠErwart": 8138,
      "Ġbetont": 8139,
      "Ġspricht": 8140,
      "ĠArbeiten": 8141,
      "Ġgegenseit": 8142,
      "Ġgreatest": 8143,
      "ĠgrÃ¶ÃŁeren": 8144,
      "wirkung": 8145,
      "Ġguaranteed": 8146,
      "Ġumfang": 8147,
      "ĠErzeugnisse": 8148,
      "Ġrestrictions": 8149,
      "Ġetc": 8150,
      "ĠFortschritt": 8151,
      "From": 8152,
      "Nicht": 8153,
      "ound": 8154,
      "Ġwrit": 8155,
      "altet": 8156,
      "ĠElement": 8157,
      "ilateral": 8158,
      "ĠgeÃ¤ndert": 8159,
      "Ġproof": 8160,
      "ĠVerst": 8161,
      "ĠVersuch": 8162,
      "ĠÃ¼bertragen": 8163,
      "Ġrespekt": 8164,
      "Ġregular": 8165,
      "Ġseines": 8166,
      "ĠKonzept": 8167,
      "worfen": 8168,
      "ĠUmweltfragen": 8169,
      "Ġgetting": 8170,
      "ĠHaider": 8171,
      "Ġstehenden": 8172,
      "ktivitÃ¤t": 8173,
      "Europa": 8174,
      "leistung": 8175,
      "Ġteilweise": 8176,
      "Ġstrongly": 8177,
      "ĠSchulden": 8178,
      "Ġreinfor": 8179,
      "ĠStatus": 8180,
      "Ġdestro": 8181,
      "ĠVerstÃ¤ndnis": 8182,
      "brit": 8183,
      "sc": 8184,
      "Ġmobil": 8185,
      "Ġhop": 8186,
      "ĠEigen": 8187,
      "uli": 8188,
      "ĠWel": 8189,
      "erring": 8190,
      "ĠKommissionsprÃ¤sident": 8191,
      "Ġentscheid": 8192,
      "Ġnachdem": 8193,
      "Ġcommittees": 8194,
      "ĠEinigung": 8195,
      "agu": 8196,
      "Ġanyone": 8197,
      "Ġfactors": 8198,
      "Ġemissions": 8199,
      "Ġlaunch": 8200,
      "Ġeinzigen": 8201,
      "klang": 8202,
      "ĠHaft": 8203,
      "Ġaircraft": 8204,
      "Ġpayments": 8205,
      "ĠProdukt": 8206,
      "Ġoccup": 8207,
      "Ġimmigrants": 8208,
      "ĠBasis": 8209,
      "ĠVerteidigungspolitik": 8210,
      "Ġmanufactur": 8211,
      "Ġprecautionary": 8212,
      "zone": 8213,
      "Ġ[": 8214,
      "Ġdro": 8215,
      "Ġwon": 8216,
      "attet": 8217,
      "ash": 8218,
      "Ġging": 8219,
      "ĠUnivers": 8220,
      "Ġwert": 8221,
      "Ġstimmt": 8222,
      "ĠNah": 8223,
      "Ġmeant": 8224,
      "Ġdaraus": 8225,
      "ples": 8226,
      "ĠChin": 8227,
      "Ġgewalt": 8228,
      "Ġtruly": 8229,
      "active": 8230,
      "lemente": 8231,
      "mittelt": 8232,
      "ĠgelÃ¶st": 8233,
      "Ġ197": 8234,
      "Ġsensible": 8235,
      "wegs": 8236,
      "Ġoptim": 8237,
      "Ġextended": 8238,
      "ĠIrland": 8239,
      "Ġvorschlagen": 8240,
      "ĠRatsvorsitz": 8241,
      "feindlichkeit": 8242,
      "Ġmittl": 8243,
      "Ġversichern": 8244,
      "Vertrag": 8245,
      "President": 8246,
      "ĠCentre": 8247,
      "ĠVerheugen": 8248,
      "Jed": 8249,
      "Richt": 8250,
      "zed": 8251,
      "Ġsides": 8252,
      "Ġtool": 8253,
      "Ġeinerseits": 8254,
      "ĠMoment": 8255,
      "lause": 8256,
      "ĠÃ¼bernommen": 8257,
      "ĠAnd": 8258,
      "ĠErika": 8259,
      "ĠGefahren": 8260,
      "Ġwarten": 8261,
      "Ġaccidents": 8262,
      "Ġassure": 8263,
      "rimes": 8264,
      "Ġresolve": 8265,
      "ĠConsumer": 8266,
      "Ġ2006": 8267,
      "bry": 8268,
      "Ġextreme": 8269,
      "ĠIhrem": 8270,
      "Ġbound": 8271,
      "Ġamongst": 8272,
      "Ġlandwirtschaft": 8273,
      "ĠdiesbezÃ¼": 8274,
      "ĠdiesbezÃ¼glich": 8275,
      "ĠjÃ¼ngsten": 8276,
      "Ġperfectly": 8277,
      "ĠPetitions": 8278,
      "Ġherzlich": 8279,
      "ĠBarnier": 8280,
      "britann": 8281,
      "06": 8282,
      "greif": 8283,
      "iform": 8284,
      "viel": 8285,
      "year": 8286,
      "ork": 8287,
      "Ġinade": 8288,
      "ĠfÃ¼": 8289,
      "Ġunless": 8290,
      "Ġreact": 8291,
      "ĠBu": 8292,
      "Ġzuletzt": 8293,
      "Ġconvention": 8294,
      "ĠDon": 8295,
      "ibed": 8296,
      "ugg": 8297,
      "Ġvorgelegten": 8298,
      "Ġabgele": 8299,
      "istics": 8300,
      "ĠVorbe": 8301,
      "ĠFinland": 8302,
      "Ġnotwendige": 8303,
      "ĠFreedom": 8304,
      "ĠgrÃ¶ÃŁte": 8305,
      "Ġbesseren": 8306,
      "Ġcontrols": 8307,
      "Ġentirely": 8308,
      "Ġanerkannt": 8309,
      "Ġerscheint": 8310,
      "Vielleicht": 8311,
      "Ġexperts": 8312,
      "ĠDÃ¤nemark": 8313,
      "AC": 8314,
      "cision": 8315,
      "nach": 8316,
      "verein": 8317,
      "Ġult": 8318,
      "ĠwÃ¼nsch": 8319,
      "Ġneither": 8320,
      "Ġbezahl": 8321,
      "Ġbeziehen": 8322,
      "Ġfordere": 8323,
      "ĠWenn": 8324,
      "ĠErarbeitung": 8325,
      "assend": 8326,
      "Ġgenannt": 8327,
      "Ġcontact": 8328,
      "Ġplant": 8329,
      "Ġwesentliche": 8330,
      "ĠHoffnung": 8331,
      "ĠFamilie": 8332,
      "Ġclarify": 8333,
      "Ġeinheitlichen": 8334,
      "Ġbureauc": 8335,
      "ĠFreitag": 8336,
      "odern": 8337,
      "Ġtut": 8338,
      "itives": 8339,
      "reben": 8340,
      "teten": 8341,
      "Ġlay": 8342,
      "umed": 8343,
      "ĠverstÃ¤nd": 8344,
      "Ġvorrang": 8345,
      "Ġmechan": 8346,
      "Ġumzusetzen": 8347,
      "heits": 8348,
      "ĠJuli": 8349,
      "Ġinsist": 8350,
      "Ġemb": 8351,
      "endence": 8352,
      "Ġremov": 8353,
      "actory": 8354,
      "ĠauÃŁen": 8355,
      "Ġoperate": 8356,
      "ĠNachbar": 8357,
      "Ġunderstanding": 8358,
      "ĠZahlen": 8359,
      "Ġkleine": 8360,
      "ĠVorsorge": 8361,
      "Ġconflicts": 8362,
      "Ġinstance": 8363,
      "Ġunterstreichen": 8364,
      "besch": 8365,
      "mb": 8366,
      "erten": 8367,
      "Ġsorg": 8368,
      "regel": 8369,
      "Ġbinding": 8370,
      "Ġfrag": 8371,
      "utr": 8372,
      "Ġprospect": 8373,
      "ĠBeweis": 8374,
      "akis": 8375,
      "ishing": 8376,
      "osev": 8377,
      "Ġincin": 8378,
      "ĠgenÃ¼": 8379,
      "Ġnationals": 8380,
      "Ġ35": 8381,
      "ĠVorschlags": 8382,
      "Ġeinzelstaat": 8383,
      "ĠeingefÃ¼hrt": 8384,
      "Ġready": 8385,
      "Ġopening": 8386,
      "ĠÃľbereinstimmung": 8387,
      "ĠStabilitÃ¤ts": 8388,
      "Ġgeeigne": 8389,
      "Ġgrundlegenden": 8390,
      "Ġstarted": 8391,
      "ĠbeschÃ¤ftigt": 8392,
      "ugoslav": 8393,
      "ĠWaren": 8394,
      "ĠPhase": 8395,
      "ĠHintergrund": 8396,
      "Amend": 8397,
      "SP": 8398,
      "ming": 8399,
      "itel": 8400,
      "Ġey": 8401,
      "omit": 8402,
      "ille": 8403,
      "ĠRu": 8404,
      "ĠRind": 8405,
      "Ġlies": 8406,
      "Ġkn": 8407,
      "ĠLomÃ©": 8408,
      "ĠTer": 8409,
      "ifteen": 8410,
      "ube": 8411,
      "Ġschrift": 8412,
      "udem": 8413,
      "Ġfacing": 8414,
      "Ġfinance": 8415,
      "Ġfeed": 8416,
      "ĠVerbrechen": 8417,
      "Ġgewissen": 8418,
      "Ġ300": 8419,
      "ĠControl": 8420,
      "Ġmonetary": 8421,
      "ĠSprachen": 8422,
      "schrÃ¤n": 8423,
      "Ġpractices": 8424,
      "ĠbegrÃ¼ÃŁt": 8425,
      "ĠBesuch": 8426,
      "schiedet": 8427,
      "ĠCharakter": 8428,
      "Ġvorliegende": 8429,
      "ĠDiskussionen": 8430,
      "ĠItalian": 8431,
      "ĠVereinbarungen": 8432,
      "ĠSerbia": 8433,
      "ĠGroÃŁbritann": 8434,
      "Ġproceedings": 8435,
      "ĠFremdenfeindlichkeit": 8436,
      "Ġseparate": 8437,
      "Ġdeclaration": 8438,
      "Ġimplications": 8439,
      "Ġrenewable": 8440,
      "Ġxenophobia": 8441,
      "Ġjetzigen": 8442,
      "RB": 8443,
      "aaten": 8444,
      "systems": 8445,
      "volle": 8446,
      "Ġu": 8447,
      "unruh": 8448,
      "reche": 8449,
      "Ġcrimes": 8450,
      "Ġunion": 8451,
      "Ġzufolge": 8452,
      "Ġloss": 8453,
      "Ġerlaub": 8454,
      "Ġleiden": 8455,
      "Ġexists": 8456,
      "izon": 8457,
      "ĠMitgliedern": 8458,
      "Ġdecis": 8459,
      "Ġ500": 8460,
      "Ġwissenschaftlichen": 8461,
      "raums": 8462,
      "Ġverstanden": 8463,
      "programme": 8464,
      "ĠPrinzipien": 8465,
      "Ġdelays": 8466,
      "Ġverabschiedet": 8467,
      "Ġoccasion": 8468,
      "Ġfalsch": 8469,
      "Ġelectronic": 8470,
      "ĠTunis": 8471,
      "Ġstaatlichen": 8472,
      "Ġverurteilt": 8473,
      "lÃ¤ÃŁlich": 8474,
      "ĠtÃ¤tig": 8475,
      "ĠfÃ¤llt": 8476,
      "ĠOrdnung": 8477,
      "set": 8478,
      "Ġdynam": 8479,
      "ĠtrÃ¤gt": 8480,
      "Ġpaper": 8481,
      "Ġanstatt": 8482,
      "astern": 8483,
      "ĠEM": 8484,
      "ĠKy": 8485,
      "Ġverring": 8486,
      "ĠHigh": 8487,
      "gested": 8488,
      "Ġausgehen": 8489,
      "ĠJuly": 8490,
      "ĠProf": 8491,
      "ĠmÃ¶glichen": 8492,
      "udes": 8493,
      "ĠEinklang": 8494,
      "Ġdifference": 8495,
      "reitung": 8496,
      "Ġaimed": 8497,
      "Ġfolgende": 8498,
      "ĠUntersuchung": 8499,
      "ĠBeamten": 8500,
      "SelbstverstÃ¤ndlich": 8501,
      "RBAN": 8502,
      "path": 8503,
      "Ġthor": 8504,
      "isierungs": 8505,
      "Ġinzwischen": 8506,
      "Ġpill": 8507,
      "ĠModell": 8508,
      "Ġrecyc": 8509,
      "schl": 8510,
      "schlag": 8511,
      "ĠEuropol": 8512,
      "Ġsole": 8513,
      "akten": 8514,
      "Ġinterin": 8515,
      "assungs": 8516,
      "Ġconserv": 8517,
      "Ġwelchen": 8518,
      "ĠHinweis": 8519,
      "ompan": 8520,
      "Ġbestimmter": 8521,
      "ĠÃ¼b": 8522,
      "kommun": 8523,
      "ĠHeimat": 8524,
      "ĠExper": 8525,
      "Ġpostal": 8526,
      "ĠKonsult": 8527,
      "Ġterrorism": 8528,
      "ĠÃľbergangs": 8529,
      "Ġlikely": 8530,
      "Ġwitness": 8531,
      "communications": 8532,
      "osevic": 8533,
      "Ġthorough": 8534,
      "IA": 8535,
      "Yet": 8536,
      "fassung": 8537,
      "Ġfla": 8538,
      "techn": 8539,
      "Ġunf": 8540,
      "Ġeingeb": 8541,
      "ĠAkte": 8542,
      "uts": 8543,
      "elbe": 8544,
      "ĠBil": 8545,
      "bere": 8546,
      "ĠLud": 8547,
      "Ġstip": 8548,
      "Ġende": 8549,
      "Ġgenutzt": 8550,
      "ildet": 8551,
      "Ġjustified": 8552,
      "ĠEurodac": 8553,
      "Ġurgency": 8554,
      "hofs": 8555,
      "Ġspeaker": 8556,
      "Only": 8557,
      "waren": 8558,
      "Ġinformieren": 8559,
      "ĠSitzungs": 8560,
      "Ġprotecting": 8561,
      "ĠYugoslav": 8562,
      "Ġlinked": 8563,
      "ĠbenÃ¶tigen": 8564,
      "Ã¤umt": 8565,
      "ĠBotschaft": 8566,
      "Ġenterprises": 8567,
      "Ġemployees": 8568,
      "chst": 8569,
      "atively": 8570,
      "Ġpassen": 8571,
      "Ġvess": 8572,
      "rak": 8573,
      "ĠSk": 8574,
      "berg": 8575,
      "Ġdenken": 8576,
      "qual": 8577,
      "Ġrational": 8578,
      "Ġvoran": 8579,
      "steht": 8580,
      "ĠAngaben": 8581,
      "ĠAnalyse": 8582,
      "ĠBefÃ¼r": 8583,
      "Ġspace": 8584,
      "inken": 8585,
      "Ġmehreren": 8586,
      "Ġsolches": 8587,
      "ĠEntwicklungen": 8588,
      "hÃ¶rigen": 8589,
      "Ġfrequ": 8590,
      "ĠFlugh": 8591,
      "ĠbekÃ¤mpfen": 8592,
      "Ġminority": 8593,
      "Ġapart": 8594,
      "Ġtaxes": 8595,
      "Ġinformiert": 8596,
      "ĠVerhandlungs": 8597,
      "Ġboard": 8598,
      "Ġdispla": 8599,
      "ĠSocialists": 8600,
      "Ġlower": 8601,
      "ĠKohÃ¤s": 8602,
      "Ġallocated": 8603,
      "ĠRechnungshof": 8604,
      "Ġelektronischen": 8605,
      "fuhr": 8606,
      "ĠgefÃ¶rdert": 8607,
      "mbud": 8608,
      "session": 8609,
      "Ġut": 8610,
      "unk": 8611,
      "anad": 8612,
      "Ġmission": 8613,
      "geiz": 8614,
      "Ġunl": 8615,
      "asst": 8616,
      "icity": 8617,
      "andal": 8618,
      "ĠerÃ¶ff": 8619,
      "Ġsichern": 8620,
      "Ġimposed": 8621,
      "ategory": 8622,
      "Ġheritage": 8623,
      "Ġprotected": 8624,
      "Ġwirklichen": 8625,
      "Ġletzter": 8626,
      "Ġscale": 8627,
      "ĠSicherheitspolitik": 8628,
      "ĠHandeln": 8629,
      "Ġklaren": 8630,
      "gemeinschaft": 8631,
      "Ġrichten": 8632,
      "rechtlichen": 8633,
      "fÃ¤hig": 8634,
      "Ġleading": 8635,
      "ĠGemeinsame": 8636,
      "Ġniemals": 8637,
      "Ġbreak": 8638,
      "Ġerhebliche": 8639,
      "Ġlanguages": 8640,
      "Ġdemonstrated": 8641,
      "Ġletztlich": 8642,
      "Jetzt": 8643,
      "Me": 8644,
      "avour": 8645,
      "celon": 8646,
      "rates": 8647,
      "Ã¨": 8648,
      "chsel": 8649,
      "Ġunzure": 8650,
      "irk": 8651,
      "Ġreiter": 8652,
      "ulations": 8653,
      "Ġauft": 8654,
      "etschen": 8655,
      "Ã¼rf": 8656,
      "ĠKategor": 8657,
      "Ġitalien": 8658,
      "ĠVerlauf": 8659,
      "ĠAnlagen": 8660,
      "Ġfailed": 8661,
      "anglad": 8662,
      "Ġnoted": 8663,
      "Ġsold": 8664,
      "Ġsolve": 8665,
      "Ġwelcher": 8666,
      "iffer": 8667,
      "ĠMonetary": 8668,
      "Ġpromotion": 8669,
      "Ġrequirement": 8670,
      "Ġperspective": 8671,
      "ĠBarcelon": 8672,
      "Ġcentre": 8673,
      "...": 8674,
      "Ġbedeuten": 8675,
      "Ġerheblich": 8676,
      "Ġimmediate": 8677,
      "ĠMÃ¤rkte": 8678,
      "ĠFinnland": 8679,
      "ĠReaktion": 8680,
      "sammlung": 8681,
      "Ġweapons": 8682,
      "ĠordnungsgemÃ¤ÃŁ": 8683,
      "ĠBarcelona": 8684,
      "Viele": 8685,
      "dent": 8686,
      "ya": 8687,
      "ĠÃ¤lter": 8688,
      "Ġaver": 8689,
      "ĠnÃ¼tz": 8690,
      "ĠKrank": 8691,
      "orthern": 8692,
      "verletz": 8693,
      "Ġerf": 8694,
      "Ġmiteinander": 8695,
      "Ins": 8696,
      "ĠArgument": 8697,
      "Ġenh": 8698,
      "ĠAbfÃ¤lle": 8699,
      "stac": 8700,
      "Ġconsiders": 8701,
      "angel": 8702,
      "istenz": 8703,
      "weder": 8704,
      "ĠÃĸl": 8705,
      "Ġbedauer": 8706,
      "ĠMaastr": 8707,
      "Ġdefine": 8708,
      "Ġschwierigen": 8709,
      "ĠSocialist": 8710,
      "Ġexclusion": 8711,
      "ĠverstÃ¤rkt": 8712,
      "ĠMilosevic": 8713,
      "Ġundertaken": 8714,
      "ĠFebruar": 8715,
      "ĠFebruary": 8716,
      "ĠMarket": 8717,
      "ĠprÃ¤z": 8718,
      "bo": 8719,
      "lose": 8720,
      "pts": 8721,
      "tin": 8722,
      "urning": 8723,
      "schetschen": 8724,
      "Ġimag": 8725,
      "ĠURBAN": 8726,
      "Ġverlei": 8727,
      "ĠDar": 8728,
      "ĠEnts": 8729,
      "Ġtransl": 8730,
      "Ġevening": 8731,
      "Ġwichtiges": 8732,
      "spartei": 8733,
      "Ġgeboten": 8734,
      "Ġ95": 8735,
      "Ġinstitutionellen": 8736,
      "ĠLuftverkehrs": 8737,
      "Ġjudicial": 8738,
      "ĠTagung": 8739,
      "ĠInformationsgesellschaft": 8740,
      "ĠMoro": 8741,
      "2006": 8742,
      "ĠDenmark": 8743,
      "ĠgeÃ¤uÃŁert": 8744,
      "Ġhervorgehoben": 8745,
      "ĠFlexibilitÃ¤t": 8746,
      "%.": 8747,
      "Not": 8748,
      "det": 8749,
      "xts": 8750,
      "Ġdign": 8751,
      "isted": 8752,
      "anach": 8753,
      "Ġangest": 8754,
      "ĠMiddle": 8755,
      "Ġzuk": 8756,
      "Ġwhatever": 8757,
      "ump": 8758,
      "verschm": 8759,
      "Ġverweisen": 8760,
      "acher": 8761,
      "Ġdepart": 8762,
      "uche": 8763,
      "ĠErk": 8764,
      "Ġinterested": 8765,
      "Ġcompuls": 8766,
      "Ġobstac": 8767,
      "ignet": 8768,
      "gebiet": 8769,
      "ĠTechn": 8770,
      "ception": 8771,
      "ĠBÃ¼rgerbeauftrag": 8772,
      "Ġfrage": 8773,
      "Ġfollowed": 8774,
      "Ġrevision": 8775,
      "stehenden": 8776,
      "ĠAuÃŁenpolitik": 8777,
      "stoff": 8778,
      "sÃ¤tzen": 8779,
      "Ġrepeated": 8780,
      "ĠBudgetary": 8781,
      "Ġclean": 8782,
      "Ġunzureich": 8783,
      "ĠMaastricht": 8784,
      "lings": 8785,
      "person": 8786,
      "ton": 8787,
      "ued": 8788,
      "enkt": 8789,
      "Ġnight": 8790,
      "Ġderog": 8791,
      "ĠAk": 8792,
      "icate": 8793,
      "ĠBro": 8794,
      "ĠBund": 8795,
      "ĠVitor": 8796,
      "ĠVerk": 8797,
      "ĠTem": 8798,
      "Ġexistence": 8799,
      "Ġvorzu": 8800,
      "Ġsprach": 8801,
      "ĠgrÃ¼nd": 8802,
      "Ġround": 8803,
      "Ġunderm": 8804,
      "Ġhoffentlich": 8805,
      "ĠSteuern": 8806,
      "Ġresolved": 8807,
      "Ġrapporteurs": 8808,
      "Meines": 8809,
      "Ġallgemeine": 8810,
      "Ġcontained": 8811,
      "Ġrailways": 8812,
      "Ġexamples": 8813,
      "Ġpraktisch": 8814,
      "ĠKompeten": 8815,
      "Ġsuffering": 8816,
      "Ġlegitimate": 8817,
      "Ġspeziellen": 8818,
      "Ġsuspend": 8819,
      "Ġassociated": 8820,
      "ĠPolizei": 8821,
      "Ġthousands": 8822,
      "Ġmandate": 8823,
      "05": 8824,
      "ris": 8825,
      "lichung": 8826,
      "ette": 8827,
      "abor": 8828,
      "verÃ¤n": 8829,
      "Ġlebens": 8830,
      "Ġcoast": 8831,
      "Ġabgestimmt": 8832,
      "ĠCommissioners": 8833,
      "Ġrespected": 8834,
      "Ġfaced": 8835,
      "Ġacts": 8836,
      "Ġweiteres": 8837,
      "Ġnumerous": 8838,
      "ĠProblems": 8839,
      "hold": 8840,
      "Ġirre": 8841,
      "leistungen": 8842,
      "Ġpassed": 8843,
      "ĠSchiffe": 8844,
      "what": 8845,
      "ĠKatastrophe": 8846,
      "Ġschwedischen": 8847,
      "Ġpermanent": 8848,
      "DR": 8849,
      "Ne": 8850,
      "Ġafr": 8851,
      "ĠmÃ¼nd": 8852,
      "lein": 8853,
      "ichtig": 8854,
      "ola": 8855,
      "Ġforests": 8856,
      "Ġdahin": 8857,
      "ĠverÃ¶ff": 8858,
      "open": 8859,
      "ĠAnn": 8860,
      "Ġausreichen": 8861,
      "grenzen": 8862,
      "ĠMitentscheid": 8863,
      "Ġproportion": 8864,
      "Ġteile": 8865,
      "Ġspielt": 8866,
      "icherungs": 8867,
      "Ġcourage": 8868,
      "Ġfestzulegen": 8869,
      "Ġverbind": 8870,
      "ĠZielen": 8871,
      "Ġsignal": 8872,
      "ziplin": 8873,
      "Ġconsumption": 8874,
      "Ġ70": 8875,
      "standing": 8876,
      "Ġprecise": 8877,
      "Ġmeaning": 8878,
      "Ġnevertheless": 8879,
      "Ġernsthaft": 8880,
      "Ġgeltenden": 8881,
      "ĠWirkung": 8882,
      "ĠArbeitsplÃ¤tzen": 8883,
      "Ġinnovative": 8884,
      "Ġschemes": 8885,
      "Ġbriefly": 8886,
      "Ġtarget": 8887,
      "ĠWiederaufbau": 8888,
      "ĠDanish": 8889,
      "ĠMonti": 8890,
      "ĠTerrorismus": 8891,
      "afrika": 8892,
      "Ġabgelehnt": 8893,
      "ground": 8894,
      "mium": 8895,
      "iting": 8896,
      "Ġfil": 8897,
      "ĠnÃ¶t": 8898,
      "ĠKind": 8899,
      "ĠKMU": 8900,
      "Ġkennen": 8901,
      "ĠGest": 8902,
      "Ġerle": 8903,
      "upts": 8904,
      "ugt": 8905,
      "undred": 8906,
      "Ġshared": 8907,
      "Ġpossibly": 8908,
      "Ġ1994": 8909,
      "Ġdamals": 8910,
      "Ġsomewhat": 8911,
      "ĠAufent": 8912,
      "ĠMittelpunkt": 8913,
      "ĠHindern": 8914,
      "Ġstattf": 8915,
      "Ġeingehalten": 8916,
      "ĠverfÃ¼gt": 8917,
      "Ġsufficiently": 8918,
      "Ġreconstruction": 8919,
      "ĠResolution": 8920,
      "ĠbeschrÃ¤nken": 8921,
      "Ġsources": 8922,
      "Ġschlimm": 8923,
      "ĠRentner": 8924,
      "ĠLudford": 8925,
      "ĠzukÃ¼nft": 8926,
      "Ġcompulsory": 8927,
      "DS": 8928,
      "uens": 8929,
      "Ġpurely": 8930,
      "ĠSorgen": 8931,
      "hrten": 8932,
      "ĠGÃ¼ter": 8933,
      "trieben": 8934,
      "ĠNorth": 8935,
      "Ġabuse": 8936,
      "ĠAusarbeitung": 8937,
      "ĠAbkommens": 8938,
      "izza": 8939,
      "Ġdisapp": 8940,
      "Ġpolitics": 8941,
      "wobod": 8942,
      "Ġlegally": 8943,
      "ĠUnterschied": 8944,
      "Ġproblemat": 8945,
      "Ġplaced": 8946,
      "Ġbringing": 8947,
      "ĠTeilen": 8948,
      "Ġhighest": 8949,
      "dienste": 8950,
      "Ġpersonally": 8951,
      "Ġchanged": 8952,
      "Ġfighting": 8953,
      "ĠFÃ¤h": 8954,
      "ĠKlim": 8955,
      "ĠFeststellung": 8956,
      "ĠLegisl": 8957,
      "ĠRegionalpolitik": 8958,
      "Lastly": 8959,
      "Ġvirt": 8960,
      "ĠstÃ¤rken": 8961,
      "Ġtimetable": 8962,
      "wareness": 8963,
      "woboda": 8964,
      "Bes": 8965,
      "VO": 8966,
      "Zudem": 8967,
      "union": 8968,
      "anen": 8969,
      "Ġfle": 8970,
      "ĠMart": 8971,
      "ĠRad": 8972,
      "Ġprohib": 8973,
      "Ġerleicht": 8974,
      "Ġmitteilen": 8975,
      "ahren": 8976,
      "ĠschlÃ¤gt": 8977,
      "grunde": 8978,
      "ĠJung": 8979,
[...]
